<pad>	0
<s>	0
</s>	0
<unk>	0
<0x00>	0
<0x01>	0
<0x02>	0
<0x03>	0
<0x04>	0
<0x05>	0
<0x06>	0
<0x07>	0
<0x08>	0
<0x09>	0
<0x0A>	0
<0x0B>	0
<0x0C>	0
<0x0D>	0
<0x0E>	0
<0x0F>	0
<0x10>	0
<0x11>	0
<0x12>	0
<0x13>	0
<0x14>	0
<0x15>	0
<0x16>	0
<0x17>	0
<0x18>	0
<0x19>	0
<0x1A>	0
<0x1B>	0
<0x1C>	0
<0x1D>	0
<0x1E>	0
<0x1F>	0
<0x20>	0
<0x21>	0
<0x22>	0
<0x23>	0
<0x24>	0
<0x25>	0
<0x26>	0
<0x27>	0
<0x28>	0
<0x29>	0
<0x2A>	0
<0x2B>	0
<0x2C>	0
<0x2D>	0
<0x2E>	0
<0x2F>	0
<0x30>	0
<0x31>	0
<0x32>	0
<0x33>	0
<0x34>	0
<0x35>	0
<0x36>	0
<0x37>	0
<0x38>	0
<0x39>	0
<0x3A>	0
<0x3B>	0
<0x3C>	0
<0x3D>	0
<0x3E>	0
<0x3F>	0
<0x40>	0
<0x41>	0
<0x42>	0
<0x43>	0
<0x44>	0
<0x45>	0
<0x46>	0
<0x47>	0
<0x48>	0
<0x49>	0
<0x4A>	0
<0x4B>	0
<0x4C>	0
<0x4D>	0
<0x4E>	0
<0x4F>	0
<0x50>	0
<0x51>	0
<0x52>	0
<0x53>	0
<0x54>	0
<0x55>	0
<0x56>	0
<0x57>	0
<0x58>	0
<0x59>	0
<0x5A>	0
<0x5B>	0
<0x5C>	0
<0x5D>	0
<0x5E>	0
<0x5F>	0
<0x60>	0
<0x61>	0
<0x62>	0
<0x63>	0
<0x64>	0
<0x65>	0
<0x66>	0
<0x67>	0
<0x68>	0
<0x69>	0
<0x6A>	0
<0x6B>	0
<0x6C>	0
<0x6D>	0
<0x6E>	0
<0x6F>	0
<0x70>	0
<0x71>	0
<0x72>	0
<0x73>	0
<0x74>	0
<0x75>	0
<0x76>	0
<0x77>	0
<0x78>	0
<0x79>	0
<0x7A>	0
<0x7B>	0
<0x7C>	0
<0x7D>	0
<0x7E>	0
<0x7F>	0
<0x80>	0
<0x81>	0
<0x82>	0
<0x83>	0
<0x84>	0
<0x85>	0
<0x86>	0
<0x87>	0
<0x88>	0
<0x89>	0
<0x8A>	0
<0x8B>	0
<0x8C>	0
<0x8D>	0
<0x8E>	0
<0x8F>	0
<0x90>	0
<0x91>	0
<0x92>	0
<0x93>	0
<0x94>	0
<0x95>	0
<0x96>	0
<0x97>	0
<0x98>	0
<0x99>	0
<0x9A>	0
<0x9B>	0
<0x9C>	0
<0x9D>	0
<0x9E>	0
<0x9F>	0
<0xA0>	0
<0xA1>	0
<0xA2>	0
<0xA3>	0
<0xA4>	0
<0xA5>	0
<0xA6>	0
<0xA7>	0
<0xA8>	0
<0xA9>	0
<0xAA>	0
<0xAB>	0
<0xAC>	0
<0xAD>	0
<0xAE>	0
<0xAF>	0
<0xB0>	0
<0xB1>	0
<0xB2>	0
<0xB3>	0
<0xB4>	0
<0xB5>	0
<0xB6>	0
<0xB7>	0
<0xB8>	0
<0xB9>	0
<0xBA>	0
<0xBB>	0
<0xBC>	0
<0xBD>	0
<0xBE>	0
<0xBF>	0
<0xC0>	0
<0xC1>	0
<0xC2>	0
<0xC3>	0
<0xC4>	0
<0xC5>	0
<0xC6>	0
<0xC7>	0
<0xC8>	0
<0xC9>	0
<0xCA>	0
<0xCB>	0
<0xCC>	0
<0xCD>	0
<0xCE>	0
<0xCF>	0
<0xD0>	0
<0xD1>	0
<0xD2>	0
<0xD3>	0
<0xD4>	0
<0xD5>	0
<0xD6>	0
<0xD7>	0
<0xD8>	0
<0xD9>	0
<0xDA>	0
<0xDB>	0
<0xDC>	0
<0xDD>	0
<0xDE>	0
<0xDF>	0
<0xE0>	0
<0xE1>	0
<0xE2>	0
<0xE3>	0
<0xE4>	0
<0xE5>	0
<0xE6>	0
<0xE7>	0
<0xE8>	0
<0xE9>	0
<0xEA>	0
<0xEB>	0
<0xEC>	0
<0xED>	0
<0xEE>	0
<0xEF>	0
<0xF0>	0
<0xF1>	0
<0xF2>	0
<0xF3>	0
<0xF4>	0
<0xF5>	0
<0xF6>	0
<0xF7>	0
<0xF8>	0
<0xF9>	0
<0xFA>	0
<0xFB>	0
<0xFC>	0
<0xFD>	0
<0xFE>	0
<0xFF>	0
▁t	-0
▁a	-1
▁th	-2
in	-3
re	-4
▁w	-5
▁s	-6
ou	-7
▁the	-8
er	-9
▁o	-10
at	-11
▁b	-12
ing	-13
▁i	-14
▁to	-15
▁c	-16
on	-17
▁m	-18
en	-19
es	-20
▁p	-21
an	-22
or	-23
▁f	-24
▁h	-25
▁d	-26
▁y	-27
ar	-28
▁you	-29
ll	-30
▁in	-31
▁of	-32
le	-33
nd	-34
st	-35
om	-36
▁I	-37
ed	-38
it	-39
▁be	-40
▁l	-41
▁g	-42
▁n	-43
as	-44
is	-45
▁e	-46
ic	-47
▁that	-48
ve	-49
al	-50
▁is	-51
▁wh	-52
▁it	-53
et	-54
ot	-55
ly	-56
▁st	-57
▁and	-58
ro	-59
se	-60
▁on	-61
ion	-62
▁T	-63
ay	-64
▁ha	-65
▁re	-66
ut	-67
ow	-68
ld	-69
▁Th	-70
ent	-71
art	-72
ers	-73
▁u	-74
ct	-75
ere	-76
oo	-77
▁for	-78
ch	-79
▁they	-80
ra	-81
ke	-82
▁A	-83
ig	-84
▁mo	-85
id	-86
▁pro	-87
▁as	-88
▁an	-89
op	-90
▁do	-91
out	-92
ver	-93
all	-94
ce	-95
▁are	-96
▁start	-97
ould	-98
▁com	-99
▁wor	-100
▁have	-101
ad	-102
est	-103
up	-104
▁not	-105
ge	-106
ess	-107
▁The	-108
ir	-109
▁W	-110
ill	-111
im	-112
th	-113
▁se	-114
▁H	-115
▁we	-116
▁B	-117
▁som	-118
▁can	-119
ant	-120
▁li	-121
▁so	-122
▁ex	-123
▁was	-124
ith	-125
▁S	-126
▁comp	-127
am	-128
▁ne	-129
▁ab	-130
ople	-131
eople	-132
▁at	-133
ul	-134
▁r	-135
▁startup	-136
▁people	-137
one	-138
ur	-139
ally	-140
▁de	-141
▁ma	-142
ood	-143
▁with	-144
▁your	-145
▁this	-146
ter	-147
▁he	-148
▁work	-149
au	-150
ble	-151
▁k	-152
▁but	-153
▁what	-154
ation	-155
de	-156
ust	-157
em	-158
▁them	-159
▁con	-160
▁bec	-161
▁there	-162
il	-163
▁about	-164
▁more	-165
▁or	-166
▁j	-167
▁if	-168
ound	-169
▁me	-170
▁su	-171
▁by	-172
▁one	-173
▁fr	-174
ck	-175
▁get	-176
ause	-177
ies	-178
▁like	-179
ate	-180
ist	-181
▁good	-182
ht	-183
ings	-184
pp	-185
ind	-186
ect	-187
▁Wh	-188
qu	-189
▁But	-190
▁It	-191
▁le	-192
▁will	-193
▁us	-194
▁would	-195
ff	-196
▁"	-197
end	-198
▁al	-199
▁because	-200
eth	-201
▁Y	-202
▁sh	-203
▁who	-204
oug	-205
ure	-206
ven	-207
ard	-208
▁inv	-209
▁some	-210
▁from	-211
um	-212
are	-213
▁compan	-214
▁tr	-215
▁int	-216
ous	-217
▁M	-218
▁v	-219
ive	-220
nt	-221
ell	-222
▁most	-223
▁wr	-224
▁ch	-225
▁want	-226
ort	-227
▁were	-228
▁invest	-229
▁just	-230
▁their	-231
us	-232
▁than	-233
ink	-234
▁And	-235
ight	-236
▁don	-237
very	-238
age	-239
▁ide	-240
▁all	-241
▁If	-242
ors	-243
▁sp	-244
ity	-245
▁seem	-246
ab	-247
▁out	-248
our	-249
os	-250
ast	-251
ain	-252
and	-253
ci	-254
▁way	-255
▁G	-256
▁im	-257
▁think	-258
▁when	-259
iv	-260
ich	-261
ft	-262
ol	-263
▁C	-264
ough	-265
ething	-266
▁In	-267
▁pre	-268
▁exp	-269
▁kn	-270
ang	-271
▁P	-272
▁something	-273
▁startups	-274
▁any	-275
▁things	-276
▁make	-277
un	-278
▁fe	-279
▁how	-280
▁found	-281
▁could	-282
gra	-283
▁go	-284
uch	-285
▁tim	-286
▁oth	-287
ag	-288
▁know	-289
▁writ	-290
king	-291
▁ad	-292
▁F	-293
▁even	-294
▁am	-295
▁bet	-296
▁en	-297
▁had	-298
▁D	-299
▁co	-300
▁V	-301
▁much	-302
▁(	-303
▁1	-304
▁un	-305
iz	-306
▁N	-307
▁O	-308
▁fa	-309
▁may	-310
▁How	-311
pt	-312
▁L	-313
gram	-314
▁has	-315
ie	-316
▁no	-317
ear	-318
ple	-319
▁other	-320
ment	-321
ions	-322
ame	-323
▁You	-324
▁new	-325
ong	-326
▁time	-327
▁ta	-328
oth	-329
▁program	-330
▁qu	-331
▁did	-332
▁di	-333
▁So	-334
▁company	-335
ence	-336
▁lot	-337
oney	-338
▁up	-339
sel	-340
▁only	-341
▁say	-342
▁imp	-343
ap	-344
▁big	-345
ice	-346
reat	-347
▁dis	-348
▁money	-349
ine	-350
ri	-351
cc	-352
ose	-353
ore	-354
ber	-355
▁read	-356
▁hard	-357
ful	-358
blem	-359
▁fir	-360
▁founders	-361
▁problem	-362
el	-363
▁des	-364
ud	-365
ably	-366
ult	-367
▁pl	-368
▁ar	-369
▁need	-370
ook	-371
so	-372
▁They	-373
▁te	-374
angu	-375
und	-376
▁doing	-377
ack	-378
▁cl	-379
▁2	-380
▁langu	-381
ually	-382
res	-383
▁should	-384
▁mean	-385
▁investors	-386
ign	-387
able	-388
▁bu	-389
ious	-390
ware	-391
▁E	-392
▁pr	-393
▁R	-394
▁year	-395
▁What	-396
▁app	-397
▁too	-398
▁does	-399
▁every	-400
▁ideas	-401
▁man	-402
▁prob	-403
▁sm	-404
▁ser	-405
ome	-406
00	-407
▁which	-408
du	-409
▁now	-410
▁part	-411
ise	-412
row	-413
ations	-414
▁into	-415
way	-416
int	-417
ath	-418
▁companies	-419
▁diff	-420
▁been	-421
▁J	-422
lic	-423
ost	-424
▁real	-425
▁first	-426
ning	-427
▁We	-428
ftware	-429
▁off	-430
▁try	-431
▁ra	-432
pe	-433
▁tw	-434
▁idea	-435
▁There	-436
ase	-437
▁software	-438
▁probably	-439
ach	-440
▁VC	-441
og	-442
oy	-443
ool	-444
pl	-445
red	-446
fter	-447
▁That	-448
▁day	-449
ue	-450
ten	-451
▁thing	-452
ical	-453
▁inc	-454
▁better	-455
▁fund	-456
ason	-457
ving	-458
▁where	-459
▁use	-460
we	-461
ting	-462
▁reason	-463
▁sch	-464
▁hel	-465
self	-466
▁being	-467
ish	-468
▁programm	-469
urn	-470
▁po	-471
▁differe	-472
▁This	-473
▁und	-474
▁help	-475
▁Hell	-476
▁When	-477
▁hi	-478
▁happ	-479
ject	-480
▁Hello	-481
▁exam	-482
ub	-483
▁my	-484
ey	-485
wn	-486
ert	-487
ick	-488
▁very	-489
▁same	-490
▁sa	-491
▁cons	-492
▁hack	-493
▁per	-494
▁kind	-495
ract	-496
▁also	-497
▁well	-498
▁ag	-499
▁over	-500
▁em	-501
▁Hi	-502
con	-503
ite	-504
▁didn	-505
▁language	-506
ising	-507
▁dec	-508
▁after	-509
▁see	-510
ress	-511
ild	-512
kes	-513
ree	-514
▁bad	-515
▁res	-516
chn	-517
▁take	-518
ob	-519
▁great	-520
arly	-521
ition	-522
ents	-523
▁gen	-524
arn	-525
▁under	-526
▁two	-527
▁going	-528
ry	-529
ide	-530
erest	-531
etings	-532
ep	-533
iness	-534
▁enough	-535
thing	-536
▁few	-537
▁best	-538
ount	-539
other	-540
ance	-541
▁fact	-542
ces	-543
▁tal	-544
▁then	-545
igh	-546
ves	-547
▁working	-548
ens	-549
▁our	-550
▁On	-551
vel	-552
▁users	-553
▁someone	-554
ile	-555
▁grow	-556
ower	-557
▁val	-558
ated	-559
▁techn	-560
ary	-561
▁act	-562
▁find	-563
▁might	-564
▁really	-565
ial	-566
▁ass	-567
▁example	-568
▁seems	-569
▁years	-570
ks	-571
ize	-572
▁right	-573
ade	-574
▁cont	-575
▁bus	-576
▁own	-577
▁gr	-578
▁less	-579
ass	-580
▁school	-581
ead	-582
▁sup	-583
reetings	-584
▁look	-585
▁sur	-586
▁interest	-587
▁different	-588
▁point	-589
▁ob	-590
ages	-591
▁still	-592
▁kid	-593
li	-594
asure	-595
▁mind	-596
▁design	-597
▁eff	-598
▁write	-599
ark	-600
ual	-601
read	-602
▁tell	-603
ought	-604
▁doesn	-605
day	-606
▁adv	-607
ds	-608
pr	-609
▁least	-610
▁produ	-611
▁deal	-612
▁ph	-613
ange	-614
▁why	-615
▁world	-616
▁business	-617
ible	-618
▁sim	-619
▁coll	-620
▁long	-621
▁gener	-622
▁hell	-623
▁spe	-624
▁writing	-625
ether	-626
oc	-627
act	-628
▁VCs	-629
umb	-630
▁high	-631
▁hello	-632
itt	-633
▁comm	-634
▁means	-635
ak	-636
▁For	-637
▁meet	-638
▁learn	-639
▁those	-640
ccess	-641
▁made	-642
▁inst	-643
ict	-644
ween	-645
▁many	-646
ically	-647
▁import	-648
ace	-649
olog	-650
ways	-651
▁never	-652
if	-653
▁U	-654
own	-655
ory	-656
▁St	-657
▁feel	-658
fore	-659
oss	-660
▁between	-661
▁mat	-662
▁sol	-663
rad	-664
▁these	-665
ans	-666
▁often	-667
ew	-668
ced	-669
▁19	-670
▁conv	-671
▁always	-672
▁small	-673
▁ty	-674
▁disc	-675
▁att	-676
▁quest	-677
▁success	-678
▁tend	-679
▁op	-680
▁kids	-681
▁such	-682
isp	-683
▁eas	-684
ating	-685
fe	-686
orm	-687
▁power	-688
▁str	-689
▁ke	-690
▁ones	-691
ire	-692
▁end	-693
▁important	-694
▁turn	-695
erm	-696
▁ev	-697
▁today	-698
ron	-699
▁run	-700
▁job	-701
▁ess	-702
▁Lisp	-703
▁el	-704
ever	-705
▁surpr	-706
▁sc	-707
▁got	-708
▁his	-709
▁won	-710
Th	-711
▁call	-712
▁down	-713
▁valu	-714
▁Com	-715
▁def	-716
▁ple	-717
ately	-718
cept	-719
▁happen	-720
▁ac	-721
▁art	-722
▁back	-723
▁build	-724
▁pers	-725
▁stud	-726
ention	-727
▁dra	-728
▁ind	-729
▁before	-730
▁product	-731
arket	-732
ertain	-733
xt	-734
mer	-735
▁pres	-736
▁another	-737
ense	-738
ility	-739
▁sit	-740
▁its	-741
▁One	-742
▁rich	-743
▁gu	-744
▁rec	-745
ities	-746
ince	-747
▁mor	-748
▁Good	-749
▁old	-750
ia	-751
▁market	-752
ness	-753
▁ask	-754
▁far	-755
▁making	-756
ici	-757
ology	-758
▁problems	-759
▁used	-760
▁essay	-761
▁compet	-762
▁yourself	-763
cess	-764
ular	-765
▁let	-766
▁both	-767
▁makes	-768
umber	-769
selves	-770
▁AI	-771
▁yet	-772
▁anything	-773
▁care	-774
▁done	-775
▁fast	-776
tern	-777
▁cur	-778
▁lar	-779
▁person	-780
be	-781
▁rem	-782
▁colle	-783
ased	-784
▁here	-785
▁sub	-786
ience	-787
bin	-788
ator	-789
▁cor	-790
▁pain	-791
▁supp	-792
▁thought	-793
▁everyone	-794
▁pay	-795
▁underst	-796
ved	-797
ail	-798
▁talk	-799
▁An	-800
oyal	-801
▁number	-802
▁trying	-803
▁thr	-804
▁loyal	-805
arch	-806
▁hackers	-807
▁Dumb	-808
▁usually	-809
otron	-810
▁project	-811
▁Dumbotron	-812
▁tra	-813
▁ready	-814
ied	-815
▁him	-816
▁ret	-817
▁pleasure	-818
sw	-819
▁become	-820
ready	-821
▁able	-822
▁serve	-823
▁smart	-824
▁certain	-825
gle	-826
ield	-827
▁through	-828
▁dist	-829
der	-830
ater	-831
▁answ	-832
▁cour	-833
▁already	-834
▁give	-835
ty	-836
pect	-837
▁else	-838
▁prof	-839
ward	-840
▁instead	-841
▁languages	-842
ix	-843
no	-844
▁incre	-845
▁while	-846
gan	-847
▁spam	-848
▁started	-849
ng	-850
▁sl	-851
ates	-852
pend	-853
▁Hey	-854
▁expl	-855
ari	-856
gel	-857
ull	-858
▁As	-859
▁Not	-860
▁pub	-861
ather	-862
alth	-863
lish	-864
vious	-865
▁sy	-866
▁assist	-867
ier	-868
▁ext	-869
▁keep	-870
▁life	-871
ock	-872
▁form	-873
--	-874
▁mon	-875
▁test	-876
▁exper	-877
▁having	-878
form	-879
▁applic	-880
▁200	-881
ittle	-882
▁round	-883
▁bel	-884
▁course	-885
▁understand	-886
cri	-887
▁Goo	-888
hing	-889
▁wrong	-890
▁themselves	-891
▁programmers	-892
▁programming	-893
less	-894
▁said	-895
▁though	-896
▁Greetings	-897
lt	-898
ove	-899
oup	-900
▁Google	-901
▁little	-902
▁starting	-903
ica	-904
ality	-905
▁seemed	-906
▁technology	-907
▁20	-908
ently	-909
▁pract	-910
▁ro	-911
rect	-912
▁mere	-913
▁morning	-914
▁whether	-915
ip	-916
▁che	-917
▁realize	-918
▁acc	-919
▁opt	-920
ither	-921
▁group	-922
▁rep	-923
▁class	-924
ution	-925
▁case	-926
▁change	-927
▁comput	-928
▁question	-929
▁At	-930
velop	-931
▁rel	-932
▁college	-933
▁sense	-934
▁wanted	-935
▁getting	-936
▁successful	-937
ics	-938
icro	-939
▁pat	-940
▁sort	-941
▁Most	-942
iss	-943
ote	-944
▁win	-945
ative	-946
▁mist	-947
▁reading	-948
wh	-949
▁belie	-950
▁early	-951
od	-952
atch	-953
ys	-954
▁)	-955
bit	-956
▁YC	-957
▁bl	-958
alley	-959
▁poss	-960
▁actually	-961
most	-962
▁angel	-963
▁large	-964
▁answer	-965
uff	-966
ized	-967
iving	-968
▁come	-969
▁next	-970
▁prop	-971
▁without	-972
▁whole	-973
▁$	-974
gest	-975
ments	-976
▁effect	-977
▁evening	-978
▁put	-979
▁top	-980
ature	-981
▁sign	-982
▁expect	-983
ustom	-984
▁anyone	-985
▁wouldn	-986
oll	-987
▁Be	-988
conom	-989
▁worth	-990
▁develop	-991
▁—	-992
▁rather	-993
iend	-994
▁friend	-995
▁matter	-996
▁interesting	-997
▁av	-998
▁br	-999
▁mill	-1000
▁code	-1001
ars	-1002
etim	-1003
▁wealth	-1004
ac	-1005
▁cou	-1006
ord	-1007
cial	-1008
▁again	-1009
binator	-1010
▁intell	-1011
ives	-1012
ploy	-1013
▁fil	-1014
▁must	-1015
▁custom	-1016
▁saying	-1017
ph	-1018
▁Combinator	-1019
ork	-1020
ined	-1021
▁buy	-1022
▁Some	-1023
cially	-1024
ters	-1025
ource	-1026
▁grad	-1027
▁list	-1028
▁true	-1029
ases	-1030
▁hey	-1031
▁cent	-1032
ale	-1033
▁nothing	-1034
aps	-1035
▁term	-1036
rit	-1037
noon	-1038
▁type	-1039
▁afternoon	-1040
aw	-1041
osed	-1042
▁cle	-1043
uring	-1044
▁advant	-1045
▁econom	-1046
▁greetings	-1047
te	-1048
▁fl	-1049
▁employ	-1050
▁each	-1051
▁count	-1052
▁field	-1053
▁almost	-1054
ply	-1055
▁ine	-1056
▁isn	-1057
▁pop	-1058
▁later	-1059
▁month	-1060
av	-1061
uth	-1062
▁ins	-1063
ivers	-1064
▁book	-1065
etimes	-1066
▁merely	-1067
▁thinking	-1068
ceed	-1069
▁conf	-1070
▁inter	-1071
▁spend	-1072
▁common	-1073
les	-1074
arent	-1075
▁fin	-1076
▁vers	-1077
▁powerful	-1078
▁To	-1079
▁till	-1080
▁around	-1081
▁growth	-1082
▁5	-1083
nce	-1084
old	-1085
icon	-1086
▁word	-1087
▁Valley	-1088
ru	-1089
▁organ	-1090
▁obvious	-1091
edi	-1092
ised	-1093
▁add	-1094
▁adm	-1095
▁once	-1096
▁stuff	-1097
▁competit	-1098
,"	-1099
▁exist	-1100
▁sell	-1101
▁Micro	-1102
ave	-1103
oid	-1104
soft	-1105
▁det	-1106
asing	-1107
ously	-1108
ivid	-1109
▁acqu	-1110
▁sure	-1111
ooking	-1112
verage	-1113
▁return	-1114
ered	-1115
▁He	-1116
▁fun	-1117
▁main	-1118
▁times	-1119
▁Microsoft	-1120
gn	-1121
cceed	-1122
▁mode	-1123
▁play	-1124
▁amount	-1125
▁App	-1126
ilicon	-1127
▁succeed	-1128
▁descri	-1129
▁simply	-1130
ms	-1131
anger	-1132
▁using	-1133
pecially	-1134
led	-1135
over	-1136
▁hand	-1137
ake	-1138
ults	-1139
▁since	-1140
its	-1141
ober	-1142
▁pol	-1143
▁rest	-1144
idence	-1145
▁three	-1146
anks	-1147
ston	-1148
▁Now	-1149
▁math	-1150
▁pret	-1151
▁either	-1152
uture	-1153
▁sound	-1154
▁3	-1155
ction	-1156
ember	-1157
inded	-1158
▁head	-1159
▁inde	-1160
▁init	-1161
▁plan	-1162
▁avoid	-1163
▁stand	-1164
▁K	-1165
ash	-1166
▁equ	-1167
▁set	-1168
▁fail	-1169
essica	-1170
▁ed	-1171
▁place	-1172
▁Jessica	-1173
▁investor	-1174
▁whatever	-1175
ah	-1176
▁typ	-1177
▁future	-1178
▁partic	-1179
ib	-1180
line	-1181
ortun	-1182
▁last	-1183
▁prot	-1184
▁show	-1185
▁process	-1186
▁es	-1187
▁million	-1188
▁everything	-1189
▁jud	-1190
▁ris	-1191
minded	-1192
▁danger	-1193
▁direct	-1194
▁likely	-1195
▁New	-1196
▁Why	-1197
▁consid	-1198
▁possible	-1199
▁gra	-1200
▁funding	-1201
gin	-1202
▁fig	-1203
▁easy	-1204
▁Which	-1205
▁raise	-1206
▁programs	-1207
stem	-1208
▁fam	-1209
▁choo	-1210
▁called	-1211
ons	-1212
▁exc	-1213
fts	-1214
ists	-1215
▁ent	-1216
ively	-1217
▁model	-1218
▁Web	-1219
▁10	-1220
▁chang	-1221
▁popular	-1222
alf	-1223
ism	-1224
haps	-1225
▁opp	-1226
▁away	-1227
ger	-1228
ident	-1229
▁imag	-1230
▁const	-1231
▁defin	-1232
▁source	-1233
he	-1234
per	-1235
▁lead	-1236
▁stop	-1237
▁worry	-1238
▁wrote	-1239
▁measure	-1240
▁students	-1241
cy	-1242
iting	-1243
▁meant	-1244
▁words	-1245
▁system	-1246
ired	-1247
ying	-1248
obert	-1249
▁appro	-1250
▁close	-1251
▁couple	-1252
▁valuable	-1253
▁young	-1254
▁Robert	-1255
▁average	-1256
▁looking	-1257
▁9	-1258
The	-1259
ule	-1260
rent	-1261
ential	-1262
▁others	-1263
▁gets	-1264
▁creat	-1265
▁effort	-1266
▁profess	-1267
vor	-1268
▁pos	-1269
▁tog	-1270
▁char	-1271
▁cost	-1272
▁pred	-1273
▁Silicon	-1274
▁individ	-1275
▁univers	-1276
▁projects	-1277
▁together	-1278
▁especially	-1279
▁experience	-1280
▁ref	-1281
▁aren	-1282
▁Apple	-1283
▁ambit	-1284
▁inf	-1285
▁told	-1286
▁0	-1287
▁Amer	-1288
▁hum	-1289
▁reg	-1290
▁vis	-1291
spect	-1292
▁secon	-1293
▁stock	-1294
▁contro	-1295
▁believe	-1296
▁explain	-1297
ken	-1298
ocus	-1299
▁fix	-1300
▁written	-1301
cise	-1302
ited	-1303
based	-1304
▁half	-1305
igence	-1306
▁People	-1307
▁figure	-1308
▁version	-1309
▁applications	-1310
▁she	-1311
▁Thanks	-1312
▁drafts	-1313
▁advantage	-1314
▁surprising	-1315
▁cre	-1316
▁cheap	-1317
▁founder	-1318
▁talking	-1319
igin	-1320
▁enc	-1321
veral	-1322
▁Even	-1323
▁open	-1324
▁risk	-1325
▁ways	-1326
▁several	-1327
▁Start	-1328
▁teach	-1329
▁works	-1330
▁pretty	-1331
ner	-1332
ury	-1333
▁focus	-1334
▁running	-1335
▁ambitious	-1336
man	-1337
nch	-1338
▁er	-1339
▁Mor	-1340
▁decid	-1341
▁worked	-1342
▁discover	-1343
cif	-1344
ris	-1345
ues	-1346
ahoo	-1347
▁ner	-1348
▁hist	-1349
ularly	-1350
▁becom	-1351
▁optim	-1352
▁current	-1353
▁individual	-1354
__	-1355
▁cap	-1356
▁situ	-1357
▁Yahoo	-1358
▁second	-1359
▁ago	-1360
▁vari	-1361
ability	-1362
▁easier	-1363
▁search	-1364
part	-1365
vers	-1366
▁car	-1367
▁depend	-1368
▁funded	-1369
▁harder	-1370
aste	-1371
▁Per	-1372
▁low	-1373
▁prom	-1374
▁assum	-1375
▁general	-1376
lu	-1377
ien	-1378
▁No	-1379
▁Re	-1380
▁dem	-1381
▁solve	-1382
▁choose	-1383
▁public	-1384
ne	-1385
▁gi	-1386
ging	-1387
▁law	-1388
▁lim	-1389
▁value	-1390
▁comple	-1391
▁publish	-1392
▁interested	-1393
▁.	-1394
▁4	-1395
▁Un	-1396
ants	-1397
ices	-1398
itch	-1399
▁stat	-1400
▁couldn	-1401
▁computer	-1402
web	-1403
ific	-1404
oura	-1405
▁Pro	-1406
▁Tre	-1407
▁aff	-1408
▁lau	-1409
iaweb	-1410
▁ever	-1411
▁knew	-1412
▁Living	-1413
▁organiz	-1414
▁predict	-1415
▁practice	-1416
▁remember	-1417
▁competitors	-1418
ond	-1419
por	-1420
ret	-1421
▁Bl	-1422
▁May	-1423
▁rare	-1424
▁except	-1425
▁specif	-1426
▁employe	-1427
▁happens	-1428
▁impress	-1429
▁sometimes	-1430
▁Livingston	-1431
),	-1432
az	-1433
▁sw	-1434
ient	-1435
ines	-1436
▁wee	-1437
ouble	-1438
▁quite	-1439
▁against	-1440
▁questions	-1441
cent	-1442
▁hop	-1443
▁mid	-1444
▁trick	-1445
▁Viaweb	-1446
▁origin	-1447
▁parent	-1448
▁approach	-1449
Wh	-1450
als	-1451
▁ign	-1452
▁deals	-1453
▁email	-1454
▁Trevor	-1455
▁months	-1456
▁increasing	-1457
iew	-1458
uck	-1459
ush	-1460
cing	-1461
ners	-1462
▁friends	-1463
▁standard	-1464
rib	-1465
ute	-1466
▁sk	-1467
ially	-1468
▁child	-1469
▁supposed	-1470
aus	-1471
oph	-1472
▁imm	-1473
cause	-1474
▁days	-1475
▁requ	-1476
▁exact	-1477
ination	-1478
▁learned	-1479
com	-1480
iqu	-1481
▁US	-1482
▁bo	-1483
inci	-1484
▁eng	-1485
▁her	-1486
▁mis	-1487
▁side	-1488
▁Notes	-1489
like	-1490
rodu	-1491
▁sal	-1492
ffici	-1493
▁filter	-1494
▁x	-1495
hip	-1496
istic	-1497
▁trans	-1498
raising	-1499
dom	-1500
ared	-1501
▁occ	-1502
▁par	-1503
▁hear	-1504
▁resp	-1505
▁present	-1506
▁Ch	-1507
▁wa	-1508
well	-1509
▁rate	-1510
▁super	-1511
▁independ	-1512
▁intelligence	-1513
▁nat	-1514
▁sug	-1515
▁ten	-1516
isdom	-1517
ollow	-1518
▁itself	-1519
▁valuation	-1520
▁dat	-1521
▁sci	-1522
▁full	-1523
▁hour	-1524
▁wasn	-1525
▁manag	-1526
▁create	-1527
▁attention	-1528
▁customers	-1529
br	-1530
000	-1531
▁aud	-1532
▁bre	-1533
▁cult	-1534
▁deli	-1535
undred	-1536
▁princi	-1537
entional	-1538
me	-1539
lus	-1540
iter	-1541
ural	-1542
▁ele	-1543
▁web	-1544
▁evol	-1545
▁sing	-1546
▁kinds	-1547
▁truth	-1548
▁follow	-1549
▁mostly	-1550
▁notice	-1551
▁suggest	-1552
▁certainly	-1553
ily	-1554
▁Or	-1555
▁beh	-1556
▁sent	-1557
▁site	-1558
ternet	-1559
▁Where	-1560
▁terms	-1561
▁taking	-1562
▁hundred	-1563
▁parents	-1564
▁building	-1565
▁surprised	-1566
aid	-1567
ene	-1568
ont	-1569
wise	-1570
▁Don	-1571
▁sum	-1572
▁live	-1573
▁opin	-1574
▁tried	-1575
▁Morris	-1576
▁series	-1577
▁designed	-1578
▁Ar	-1579
▁hu	-1580
▁bro	-1581
▁novel	-1582
▁takes	-1583
▁treat	-1584
▁initial	-1585
ese	-1586
▁Alt	-1587
▁left	-1588
▁types	-1589
▁express	-1590
▁fundraising	-1591
gy	-1592
▁dr	-1593
ison	-1594
vent	-1595
▁All	-1596
▁dom	-1597
andom	-1598
▁free	-1599
▁seen	-1600
▁quality	-1601
▁mot	-1602
▁net	-1603
licit	-1604
▁took	-1605
▁knows	-1606
▁offer	-1607
▁Because	-1608
lf	-1609
▁Ind	-1610
▁arg	-1611
▁min	-1612
inary	-1613
▁move	-1614
▁rule	-1615
▁advice	-1616
▁useful	-1617
get	-1618
ros	-1619
▁Har	-1620
▁cra	-1621
▁ord	-1622
▁name	-1623
▁price	-1624
▁decide	-1625
▁online	-1626
▁encoura	-1627
▁protect	-1628
aken	-1629
▁news	-1630
▁outs	-1631
▁slow	-1632
▁judge	-1633
▁polit	-1634
▁whose	-1635
▁random	-1636
▁precise	-1637
▁trouble	-1638
▁difference	-1639
▁independent	-1640
gs	-1641
▁id	-1642
▁est	-1643
▁pick	-1644
▁rese	-1645
ousand	-1646
▁comes	-1647
▁short	-1648
▁control	-1649
▁exactly	-1650
▁returns	-1651
▁Internet	-1652
▁consider	-1653
▁investing	-1654
▁oper	-1655
▁Black	-1656
▁expens	-1657
▁Startup	-1658
?"	-1659
lud	-1660
alse	-1661
ries	-1662
▁199	-1663
▁huge	-1664
▁went	-1665
▁Maybe	-1666
▁begin	-1667
▁century	-1668
▁history	-1669
▁7	-1670
▁Se	-1671
ledge	-1672
▁simil	-1673
▁determ	-1674
▁Blackwell	-1675
ird	-1676
aces	-1677
▁Inst	-1678
▁spent	-1679
▁expert	-1680
▁turned	-1681
▁happened	-1682
▁painting	-1683
▁thousand	-1684
▁dangerous	-1685
▁particularly	-1686
▁z	-1687
aries	-1688
▁data	-1689
▁path	-1690
▁cases	-1691
▁launch	-1692
▁wisdom	-1693
▁biggest	-1694
▁feature	-1695
ian	-1696
rain	-1697
▁mult	-1698
▁trad	-1699
▁office	-1700
vert	-1701
▁rele	-1702
▁self	-1703
▁user	-1704
▁cause	-1705
▁hacker	-1706
▁raising	-1707
▁specific	-1708
▁conventional	-1709
ank	-1710
uct	-1711
ciet	-1712
▁cla	-1713
▁deg	-1714
▁pap	-1715
icult	-1716
▁false	-1717
▁firms	-1718
▁scale	-1719
▁weren	-1720
▁faster	-1721
▁ignore	-1722
▁server	-1723
▁single	-1724
▁Another	-1725
▁imagine	-1726
ike	-1727
▁Ste	-1728
▁claim	-1729
▁watch	-1730
▁adults	-1731
▁during	-1732
▁ability	-1733
▁mistaken	-1734
▁generally	-1735
any	-1736
inct	-1737
▁impro	-1738
▁famous	-1739
▁longer	-1740
▁convers	-1741
▁economic	-1742
▁realized	-1743
orn	-1744
▁ter	-1745
▁tre	-1746
ional	-1747
▁doll	-1748
▁paid	-1749
▁past	-1750
▁pref	-1751
▁gover	-1752
▁liter	-1753
▁order	-1754
▁reven	-1755
▁wants	-1756
▁worse	-1757
▁compon	-1758
▁indust	-1759
▁profit	-1760
▁rounds	-1761
▁suffici	-1762
▁research	-1763
▁investment	-1764
ex	-1765
ement	-1766
gress	-1767
▁guys	-1768
▁kill	-1769
▁asked	-1770
▁contin	-1771
▁perform	-1772
▁audience	-1773
▁evidence	-1774
app	-1775
▁met	-1776
▁mom	-1777
imate	-1778
ational	-1779
▁partly	-1780
▁subject	-1781
ortunately	-1782
▁6	-1783
par	-1784
where	-1785
▁medi	-1786
arning	-1787
▁multi	-1788
▁nerds	-1789
▁result	-1790
▁Instead	-1791
▁acquire	-1792
▁difficult	-1793
▁employees	-1794
▁principle	-1795
ax	-1796
ames	-1797
▁cho	-1798
aking	-1799
▁mess	-1800
▁miss	-1801
▁qual	-1802
▁among	-1803
▁books	-1804
▁stage	-1805
▁govern	-1806
▁sounds	-1807
air	-1808
ked	-1809
▁fair	-1810
▁fall	-1811
▁jobs	-1812
▁spread	-1813
▁schools	-1814
▁similar	-1815
ero	-1816
▁By	-1817
ital	-1818
▁dri	-1819
▁love	-1820
▁Every	-1821
▁press	-1822
▁fields	-1823
▁societ	-1824
▁Whereas	-1825
▁natural	-1826
▁performance	-1827
dd	-1828
arm	-1829
enty	-1830
ther	-1831
▁err	-1832
▁lots	-1833
▁After	-1834
▁extre	-1835
▁needs	-1836
▁learning	-1837
▁solution	-1838
book	-1839
pose	-1840
▁lab	-1841
▁obs	-1842
ories	-1843
▁Then	-1844
▁face	-1845
overed	-1846
▁essays	-1847
▁summer	-1848
▁reasons	-1849
▁complete	-1850
▁existing	-1851
▁technical	-1852
ift	-1853
ilt	-1854
ott	-1855
put	-1856
▁201	-1857
▁pur	-1858
arily	-1859
cious	-1860
lying	-1861
▁York	-1862
▁decre	-1863
▁quick	-1864
▁social	-1865
▁becomes	-1866
▁perhaps	-1867
▁willing	-1868
ug	-1869
rew	-1870
▁My	-1871
▁Sam	-1872
▁air	-1873
▁med	-1874
▁wal	-1875
▁hire	-1876
▁mach	-1877
▁given	-1878
▁mistake	-1879
▁situation	-1880
).	-1881
ged	-1882
atic	-1883
ilos	-1884
ouse	-1885
work	-1886
▁pot	-1887
oring	-1888
▁crit	-1889
▁reci	-1890
▁guess	-1891
▁ident	-1892
ilosoph	-1893
▁asking	-1894
▁necess	-1895
▁computers	-1896
ios	-1897
ren	-1898
▁Jav	-1899
▁pass	-1900
▁phys	-1901
▁repl	-1902
▁size	-1903
▁step	-1904
ortion	-1905
▁myself	-1906
▁theory	-1907
▁increase	-1908
▁recently	-1909
▁8	-1910
eed	-1911
erv	-1912
ler	-1913
hold	-1914
ival	-1915
▁Eng	-1916
▁bit	-1917
▁sec	-1918
▁tax	-1919
izing	-1920
▁With	-1921
▁desk	-1922
▁four	-1923
▁store	-1924
▁Americ	-1925
▁Though	-1926
ime	-1927
▁hope	-1928
▁lose	-1929
▁push	-1930
▁room	-1931
umbers	-1932
▁force	-1933
▁angels	-1934
▁meaning	-1935
▁shouldn	-1936
▁support	-1937
▁Startups	-1938
▁expected	-1939
▁techniqu	-1940
▁intellect	-1941
▁promising	-1942
pro	-1943
upid	-1944
▁cop	-1945
ished	-1946
▁clos	-1947
▁paint	-1948
▁living	-1949
▁patent	-1950
eal	-1951
for	-1952
ges	-1953
▁pe	-1954
▁leg	-1955
ingly	-1956
▁bene	-1957
▁came	-1958
▁actual	-1959
▁chance	-1960
▁extreme	-1961
▁respect	-1962
bed	-1963
rup	-1964
top	-1965
▁goal	-1966
▁artic	-1967
▁clear	-1968
▁human	-1969
▁tends	-1970
ciously	-1971
quality	-1972
▁knowledge	-1973
▁precisely	-1974
▁discovered	-1975
aul	-1976
▁Do	-1977
▁Som	-1978
▁city	-1979
▁Steve	-1980
▁places	-1981
▁attract	-1982
▁position	-1983
ior	-1984
ude	-1985
fect	-1986
ators	-1987
▁Like	-1988
▁mail	-1989
▁groups	-1990
▁stupid	-1991
▁deliber	-1992
▁numbers	-1993
▁special	-1994
▁philosoph	-1995
▁potential	-1996
cle	-1997
This	-1998
ream	-1999
▁100	-2000
▁rap	-2001
ences	-2002
itive	-2003
▁cool	-2004
▁says	-2005
▁send	-2006
▁hours	-2007
▁engine	-2008
▁needed	-2009
▁matters	-2010
▁suspect	-2011
If	-2012
dle	-2013
lin	-2014
▁Al	-2015
omen	-2016
unch	-2017
ures	-2018
▁rul	-2019
▁felt	-2020
▁game	-2021
▁late	-2022
▁safe	-2023
▁zero	-2024
though	-2025
▁built	-2026
▁front	-2027
▁speak	-2028
▁turns	-2029
▁worst	-2030
itional	-2031
ounders	-2032
▁fairly	-2033
▁immedi	-2034
▁inequality	-2035
io	-2036
to	-2037
▁$1	-2038
▁198	-2039
▁del	-2040
▁ener	-2041
▁fort	-2042
▁These	-2043
▁allow	-2044
▁share	-2045
▁trend	-2046
▁became	-2047
▁combin	-2048
▁corpor	-2049
▁forces	-2050
▁includ	-2051
▁switch	-2052
▁unless	-2053
▁within	-2054
▁dollars	-2055
▁serious	-2056
▁expensive	-2057
▁application	-2058
ls	-2059
ran	-2060
val	-2061
,000	-2062
ault	-2063
lect	-2064
vest	-2065
▁Get	-2066
▁age	-2067
graph	-2068
▁Java	-2069
▁conc	-2070
▁rout	-2071
itions	-2072
▁lower	-2073
▁oppos	-2074
▁depart	-2075
▁prefer	-2076
▁desktop	-2077
▁universities	-2078
aug	-2079
lls	-2080
ric	-2081
▁Ex	-2082
nect	-2083
ples	-2084
reed	-2085
▁loc	-2086
ented	-2087
▁Coll	-2088
▁fash	-2089
▁soon	-2090
▁notic	-2091
▁bought	-2092
▁toward	-2093
▁concept	-2094
▁smaller	-2095
▁acquirer	-2096
▁increasingly	-2097
▁Eu	-2098
nter	-2099
▁Paul	-2100
▁caus	-2101
▁week	-2102
▁based	-2103
▁haven	-2104
▁reach	-2105
▁Altman	-2106
▁inform	-2107
▁charact	-2108
▁correct	-2109
▁default	-2110
▁draw	-2111
▁firm	-2112
enture	-2113
▁decis	-2114
plement	-2115
▁fortun	-2116
▁repres	-2117
▁decided	-2118
▁prevent	-2119
▁multiple	-2120
▁government	-2121
▁programmer	-2122
ee	-2123
cul	-2124
▁TV	-2125
rast	-2126
rope	-2127
▁arr	-2128
▁bas	-2129
▁seed	-2130
▁town	-2131
▁brain	-2132
▁middle	-2133
▁perfect	-2134
▁gradually	-2135
▁implement	-2136
the	-2137
▁Jo	-2138
head	-2139
miss	-2140
ully	-2141
▁dev	-2142
▁ear	-2143
antly	-2144
iment	-2145
ption	-2146
▁Once	-2147
▁check	-2148
▁react	-2149
▁space	-2150
▁tests	-2151
▁strong	-2152
▁struct	-2153
▁capital	-2154
▁collect	-2155
▁hacking	-2156
▁ordinary	-2157
▁sufficiently	-2158
▁organizations	-2159
bt	-2160
ox	-2161
ane	-2162
▁Mc	-2163
emat	-2164
rupt	-2165
▁stay	-2166
▁stra	-2167
▁paper	-2168
▁rapid	-2169
▁sales	-2170
▁separ	-2171
▁taste	-2172
ization	-2173
licitly	-2174
▁Europe	-2175
▁assume	-2176
▁convin	-2177
▁manage	-2178
▁moment	-2179
▁patents	-2180
▁percent	-2181
▁selling	-2182
▁telling	-2183
▁convince	-2184
got	-2185
ster	-2186
stig	-2187
▁Any	-2188
▁pie	-2189
aving	-2190
iring	-2191
▁auth	-2192
▁bott	-2193
▁serv	-2194
▁gradu	-2195
▁happy	-2196
▁heard	-2197
▁invol	-2198
▁leave	-2199
▁looks	-2200
▁story	-2201
▁accept	-2202
▁nature	-2203
▁slight	-2204
▁created	-2205
▁economy	-2206
▁filters	-2207
▁results	-2208
▁children	-2209
▁opinions	-2210
50	-2211
ets	-2212
inc	-2213
ton	-2214
ump	-2215
use	-2216
vol	-2217
come	-2218
mers	-2219
▁Con	-2220
▁Wor	-2221
aught	-2222
iosity	-2223
▁board	-2224
▁break	-2225
▁higher	-2226
▁classes	-2227
▁connect	-2228
▁feeling	-2229
▁pattern	-2230
▁American	-2231
▁partners	-2232
▁undergra	-2233
▁happening	-2234
▁variation	-2235
ows	-2236
▁cr	-2237
ived	-2238
▁aut	-2239
▁unf	-2240
▁line	-2241
ienced	-2242
▁sites	-2243
ibility	-2244
▁Indeed	-2245
▁country	-2246
▁hardware	-2247
▁signific	-2248
▁countries	-2249
▁particular	-2250
▁proportion	-2251
▁deliberately	-2252
EO	-2253
off	-2254
ogn	-2255
▁Im	-2256
▁Us	-2257
ended	-2258
itude	-2259
ivity	-2260
▁Just	-2261
▁boss	-2262
▁earn	-2263
ablish	-2264
▁extra	-2265
▁rules	-2266
▁third	-2267
raction	-2268
▁extent	-2269
▁America	-2270
▁changes	-2271
▁depends	-2272
▁introdu	-2273
▁quickly	-2274
▁definition	-2275
▁professors	-2276
▁investments	-2277
ec	-2278
yp	-2279
son	-2280
▁2.	-2281
▁Is	-2282
▁Of	-2283
rial	-2284
▁hub	-2285
▁Many	-2286
▁text	-2287
▁earli	-2288
▁influ	-2289
▁level	-2290
▁entire	-2291
▁however	-2292
▁machine	-2293
▁meeting	-2294
▁mention	-2295
▁servers	-2296
▁opposite	-2297
▁original	-2298
▁encourage	-2299
▁establish	-2300
▁conversation	-2301
akes	-2302
lies	-2303
▁home	-2304
▁wait	-2305
▁along	-2306
▁event	-2307
▁limit	-2308
▁simple	-2309
▁changed	-2310
▁culture	-2311
▁prestig	-2312
▁function	-2313
▁opportun	-2314
▁	-2315
pre	-2316
rict	-2317
uine	-2318
▁CEO	-2319
▁Pat	-2320
▁maj	-2321
▁yes	-2322
ances	-2323
▁bill	-2324
ilities	-2325
▁anyway	-2326
▁rarely	-2327
▁consist	-2328
▁genuine	-2329
▁describe	-2330
▁sentence	-2331
▁straight	-2332
▁initially	-2333
▁otherwise	-2334
▁practically	-2335
eb	-2336
aph	-2337
▁der	-2338
▁mar	-2339
▁dead	-2340
▁poor	-2341
▁maybe	-2342
▁thres	-2343
▁choice	-2344
▁driven	-2345
▁English	-2346
▁Perhaps	-2347
▁direction	-2348
▁threshold	-2349
▁intellectual	-2350
rop	-2351
cons	-2352
rick	-2353
▁aim	-2354
▁dou	-2355
onest	-2356
▁Perl	-2357
▁bugs	-2358
▁luck	-2359
▁phen	-2360
▁phase	-2361
▁route	-2362
▁Invest	-2363
▁domain	-2364
▁effici	-2365
▁energy	-2366
▁object	-2367
atically	-2368
▁venture	-2369
▁phenomen	-2370
▁Sometimes	-2371
ral	-2372
ross	-2373
view	-2374
▁amb	-2375
▁ann	-2376
▁phr	-2377
fully	-2378
▁hadn	-2379
▁view	-2380
▁gives	-2381
▁topic	-2382
▁acquis	-2383
▁coming	-2384
▁degree	-2385
▁reward	-2386
▁growing	-2387
▁sitting	-2388
of	-2389
aut	-2390
gor	-2391
ins	-2392
rom	-2393
▁De	-2394
empt	-2395
▁war	-2396
▁goes	-2397
▁hold	-2398
▁disag	-2399
▁incom	-2400
▁skill	-2401
▁compar	-2402
▁recogn	-2403
▁strate	-2404
▁wonder	-2405
▁improve	-2406
▁outside	-2407
▁produce	-2408
▁deciding	-2409
▁obviously	-2410
▁advantages	-2411
▁university	-2412
▁development	-2413
gh	-2414
gr	-2415
ape	-2416
att	-2417
▁18	-2418
▁Sh	-2419
chie	-2420
lead	-2421
▁fra	-2422
▁ill	-2423
▁mag	-2424
ering	-2425
▁Bill	-2426
▁Want	-2427
▁deep	-2428
▁liked	-2429
▁yield	-2430
▁points	-2431
▁reject	-2432
▁consult	-2433
▁generate	-2434
▁slightly	-2435
▁curiosity	-2436
▁standards	-2437
▁phenomenon	-2438
It	-2439
els	-2440
men	-2441
obs	-2442
▁0.	-2443
▁jo	-2444
idge	-2445
iled	-2446
▁mer	-2447
ubble	-2448
▁Face	-2449
▁Hack	-2450
▁lack	-2451
▁suck	-2452
▁team	-2453
gorith	-2454
▁Since	-2455
▁achie	-2456
▁feels	-2457
▁house	-2458
▁lives	-2459
▁motiv	-2460
▁weeks	-2461
▁afford	-2462
▁bigger	-2463
▁conserv	-2464
▁options	-2465
▁society	-2466
▁strange	-2467
▁Facebook	-2468
▁definite	-2469
▁features	-2470
▁mathemat	-2471
apt	-2472
ify	-2473
ency	-2474
▁197	-2475
osing	-2476
▁inex	-2477
▁save	-2478
▁attack	-2479
▁nearly	-2480
▁stories	-2481
▁surprise	-2482
▁relations	-2483
▁considered	-2484
▁philosophy	-2485
irt	-2486
ura	-2487
lude	-2488
ried	-2489
▁nar	-2490
▁sat	-2491
▁uns	-2492
oston	-2493
▁Your	-2494
▁five	-2495
▁wish	-2496
icians	-2497
▁began	-2498
▁known	-2499
▁waste	-2500
▁Boston	-2501
▁Bubble	-2502
▁affect	-2503
▁broken	-2504
▁demand	-2505
▁paying	-2506
▁committ	-2507
▁noticed	-2508
▁rapidly	-2509
▁respons	-2510
▁critical	-2511
▁exciting	-2512
▁experiment	-2513
▁relationship	-2514
bs	-2515
ley	-2516
lly	-2517
ped	-2518
urs	-2519
cipl	-2520
enth	-2521
ires	-2522
▁bar	-2523
▁hit	-2524
▁key	-2525
▁tot	-2526
▁cred	-2527
▁dram	-2528
ources	-2529
▁Their	-2530
▁batch	-2531
▁moder	-2532
▁shows	-2533
ionally	-2534
▁narrow	-2535
▁recipe	-2536
▁writers	-2537
▁Collison	-2538
▁algorith	-2539
▁beginning	-2540
▁impressive	-2541
bn	-2542
fit	-2543
ira	-2544
vit	-2545
▁1.	-2546
▁PR	-2547
▁gl	-2548
arry	-2549
▁hot	-2550
▁squ	-2551
ument	-2552
▁Fred	-2553
▁abst	-2554
▁fear	-2555
▁food	-2556
▁nice	-2557
ternal	-2558
utions	-2559
▁major	-2560
ivalent	-2561
▁himself	-2562
▁readers	-2563
▁solving	-2564
▁separate	-2565
▁Investors	-2566
▁corporate	-2567
▁filtering	-2568
▁qualities	-2569
▁information	-2570
▁probability	-2571
hn	-2572
ann	-2573
abor	-2574
arth	-2575
pper	-2576
▁196	-2577
▁Day	-2578
▁cal	-2579
▁cut	-2580
▁env	-2581
▁guy	-2582
▁inh	-2583
iders	-2584
ified	-2585
▁copy	-2586
ration	-2587
▁admit	-2588
▁study	-2589
▁income	-2590
▁looked	-2591
▁regard	-2592
▁failure	-2593
▁fashion	-2594
▁interview	-2595
▁eventually	-2596
▁profitable	-2597
▁organization	-2598
cr	-2599
now	-2600
yth	-2601
▁cy	-2602
▁Are	-2603
▁Cam	-2604
▁Dem	-2605
▁fur	-2606
▁lat	-2607
▁mac	-2608
▁saw	-2609
ining	-2610
▁cond	-2611
▁exec	-2612
▁grew	-2613
▁page	-2614
▁prep	-2615
ctions	-2616
erence	-2617
▁ahead	-2618
▁apart	-2619
▁stick	-2620
▁author	-2621
▁boring	-2622
▁buying	-2623
▁commun	-2624
▁imposs	-2625
▁larger	-2626
▁unlike	-2627
▁Patrick	-2628
▁article	-2629
▁handful	-2630
▁science	-2631
▁becoming	-2632
▁component	-2633
▁completely	-2634
▁productive	-2635
▁surprisingly	-2636
BM	-2637
fra	-2638
mon	-2639
nov	-2640
▁50	-2641
▁Ph	-2642
sequ	-2643
▁Int	-2644
▁due	-2645
▁hyp	-2646
▁lie	-2647
▁non	-2648
▁Jobs	-2649
▁Part	-2650
▁Plus	-2651
▁beat	-2652
▁edge	-2653
▁edit	-2654
aining	-2655
bridge	-2656
▁occas	-2657
▁print	-2658
licated	-2659
▁easily	-2660
▁giving	-2661
▁counter	-2662
▁distrib	-2663
▁directly	-2664
▁described	-2665
▁literally	-2666
▁situations	-2667
''	-2668
sy	-2669
▁$2	-2670
ider	-2671
ises	-2672
ling	-2673
utes	-2674
▁IBM	-2675
▁iss	-2676
ivate	-2677
▁Well	-2678
▁corp	-2679
▁libr	-2680
umably	-2681
▁fight	-2682
▁overl	-2683
▁factor	-2684
▁inevit	-2685
▁release	-2686
▁student	-2687
▁meetings	-2688
▁revenues	-2689
▁consulting	-2690
let	-2691
pir	-2692
▁Le	-2693
▁bi	-2694
▁ok	-2695
ingu	-2696
vard	-2697
what	-2698
▁Air	-2699
▁Ser	-2700
▁abs	-2701
▁emb	-2702
▁mov	-2703
▁ult	-2704
ython	-2705
▁Imag	-2706
▁lawy	-2707
▁norm	-2708
▁stre	-2709
indows	-2710
▁compl	-2711
▁helps	-2712
▁speed	-2713
▁twent	-2714
arently	-2715
▁hiring	-2716
▁Harvard	-2717
▁earlier	-2718
▁mislead	-2719
▁purpose	-2720
▁require	-2721
▁creating	-2722
▁suggests	-2723
▁acquirers	-2724
▁character	-2725
▁confident	-2726
▁operating	-2727
▁explicitly	-2728
ats	-2729
iff	-2730
ides	-2731
imin	-2732
ruct	-2733
▁mem	-2734
▁unt	-2735
verse	-2736
▁John	-2737
▁dest	-2738
▁magn	-2739
▁accur	-2740
▁beaut	-2741
▁doubt	-2742
▁habit	-2743
▁Python	-2744
▁commit	-2745
▁offers	-2746
▁aggress	-2747
▁cheaper	-2748
▁missing	-2749
▁partner	-2750
▁Cambridge	-2751
▁determined	-2752
▁significant	-2753
In	-2754
by	-2755
icy	-2756
isc	-2757
isf	-2758
uly	-2759
▁lo	-2760
When	-2761
ades	-2762
goti	-2763
ibly	-2764
ming	-2765
oted	-2766
pped	-2767
ring	-2768
▁die	-2769
▁ste	-2770
▁unc	-2771
ients	-2772
▁More	-2773
▁lies	-2774
▁lost	-2775
▁olds	-2776
▁surv	-2777
▁thus	-2778
▁vary	-2779
▁wast	-2780
▁weak	-2781
arious	-2782
▁alone	-2783
▁death	-2784
▁domin	-2785
▁fixed	-2786
▁grows	-2787
▁local	-2788
▁piece	-2789
▁taken	-2790
▁trade	-2791
▁appear	-2792
▁behind	-2793
▁consum	-2794
▁phrase	-2795
▁Program	-2796
▁constra	-2797
▁further	-2798
▁knowing	-2799
▁opinion	-2800
▁revenue	-2801
▁Founders	-2802
▁distinct	-2803
▁necessary	-2804
▁immediately	-2805
▁conservative	-2806
▁productivity	-2807
set	-2808
▁15	-2809
▁Am	-2810
▁Te	-2811
▁Wo	-2812
▁ur	-2813
uous	-2814
▁dam	-2815
erent	-2816
othes	-2817
▁Comp	-2818
▁pull	-2819
▁sens	-2820
▁shar	-2821
▁walk	-2822
ighten	-2823
urning	-2824
▁autom	-2825
▁innov	-2826
▁parts	-2827
▁throw	-2828
▁inside	-2829
▁negoti	-2830
▁resist	-2831
▁taught	-2832
▁curious	-2833
▁message	-2834
▁examples	-2835
▁invested	-2836
▁restrict	-2837
▁technolog	-2838
▁components	-2839
%.	-2840
▁30	-2841
vant	-2842
▁Our	-2843
▁hor	-2844
▁ing	-2845
▁inn	-2846
▁rid	-2847
cient	-2848
▁arch	-2849
▁gave	-2850
▁near	-2851
iction	-2852
oughly	-2853
▁badly	-2854
▁bring	-2855
▁grant	-2856
▁micro	-2857
▁forced	-2858
▁invent	-2859
▁recent	-2860
▁seeing	-2861
▁uncons	-2862
▁clearly	-2863
▁discipl	-2864
▁playing	-2865
▁service	-2866
▁ambition	-2867
▁continue	-2868
▁industry	-2869
▁genuinely	-2870
▁including	-2871
▁represent	-2872
▁valuations	-2873
▁complicated	-2874
ps	-2875
oot	-2876
▁Cl	-2877
iler	-2878
▁Bay	-2879
▁red	-2880
▁tro	-2881
crast	-2882
inist	-2883
▁2009	-2884
▁fift	-2885
▁port	-2886
▁broad	-2887
▁catch	-2888
▁error	-2889
inguish	-2890
▁bottom	-2891
▁secret	-2892
▁Imagine	-2893
▁convert	-2894
▁statist	-2895
▁mistakes	-2896
▁products	-2897
▁spending	-2898
▁structure	-2899
▁equivalent	-2900
▁impossible	-2901
▁techniques	-2902
▁opportunity	-2903
▁professional	-2904
1.	-2905
ni	-2906
uc	-2907
zy	-2908
▁Pl	-2909
fort	-2910
heit	-2911
▁Nor	-2912
▁Wil	-2913
▁ant	-2914
▁dil	-2915
There	-2916
▁Buch	-2917
▁Here	-2918
▁fine	-2919
▁Airbn	-2920
▁brand	-2921
▁funds	-2922
▁names	-2923
▁total	-2924
▁causes	-2925
▁cities	-2926
▁disast	-2927
▁evolve	-2928
▁raised	-2929
▁report	-2930
▁satisf	-2931
▁account	-2932
▁compete	-2933
▁content	-2934
▁decades	-2935
▁Buchheit	-2936
▁progress	-2937
▁spammers	-2938
▁conscious	-2939
▁ourselves	-2940
▁businesses	-2941
▁determination	-2942
``	-2943
▁X	-2944
iet	-2945
ili	-2946
irc	-2947
pam	-2948
uss	-2949
What	-2950
ains	-2951
hood	-2952
uted	-2953
▁Bet	-2954
▁bug	-2955
ables	-2956
▁brow	-2957
▁core	-2958
▁link	-2959
▁obst	-2960
▁onto	-2961
▁post	-2962
urally	-2963
▁agree	-2964
▁coinc	-2965
▁leads	-2966
▁relig	-2967
▁sched	-2968
▁usual	-2969
▁visit	-2970
imately	-2971
▁appeal	-2972
▁detail	-2973
▁indeed	-2974
▁writer	-2975
▁consequ	-2976
▁finally	-2977
▁minutes	-2978
▁neither	-2979
▁winners	-2980
▁customer	-2981
▁finished	-2982
▁managers	-2983
▁procrast	-2984
▁studying	-2985
▁algorithm	-2986
▁thousands	-2987
▁acquisition	-2988
▁competition	-2989
▁consciously	-2990
How	-2991
bur	-2992
pic	-2993
▁ax	-2994
▁ey	-2995
ntax	-2996
ping	-2997
uing	-2998
▁202	-2999
▁Act	-3000
▁Sup	-3001
▁din	-3002
▁nor	-3003
itect	-3004
▁Demo	-3005
▁cars	-3006
▁educ	-3007
atever	-3008
▁annoy	-3009
▁bunch	-3010
▁conce	-3011
▁forms	-3012
▁giant	-3013
▁lines	-3014
▁minds	-3015
▁posit	-3016
▁spect	-3017
▁trust	-3018
▁billion	-3019
▁conclus	-3020
▁implies	-3021
▁related	-3022
▁abstract	-3023
▁millions	-3024
▁prospect	-3025
▁department	-3026
▁percentage	-3027
2.	-3028
joy	-3029
ody	-3030
ols	-3031
ots	-3032
rel	-3033
ued	-3034
unk	-3035
ype	-3036
▁25	-3037
▁99	-3038
▁Ge	-3039
▁``	-3040
aced	-3041
mber	-3042
▁Red	-3043
▁cof	-3044
▁ens	-3045
▁fore	-3046
▁gras	-3047
▁laws	-3048
▁alarm	-3049
▁avail	-3050
▁expon	-3051
▁lucky	-3052
▁shape	-3053
▁until	-3054
▁upper	-3055
▁Wilson	-3056
▁admiss	-3057
▁center	-3058
▁medium	-3059
▁obstac	-3060
▁stores	-3061
▁twenty	-3062
▁answers	-3063
▁smarter	-3064
▁although	-3065
▁decrease	-3066
▁entirely	-3067
▁currently	-3068
▁designers	-3069
▁efficient	-3070
▁technique	-3071
▁confidence	-3072
▁convincing	-3073
▁misleading	-3074
▁Fortunately	-3075
mm	-3076
sh	-3077
aks	-3078
iod	-3079
urt	-3080
wor	-3081
xim	-3082
▁Ad	-3083
▁vi	-3084
outh	-3085
ament	-3086
lling	-3087
▁desp	-3088
▁gone	-3089
▁wise	-3090
angels	-3091
▁clean	-3092
▁enjoy	-3093
▁freed	-3094
▁ought	-3095
▁phone	-3096
▁state	-3097
reement	-3098
▁altern	-3099
▁belief	-3100
▁calcul	-3101
▁myster	-3102
▁Someone	-3103
▁Windows	-3104
▁amounts	-3105
▁judging	-3106
▁manager	-3107
▁replace	-3108
▁accident	-3109
▁personal	-3110
▁strategy	-3111
▁combination	-3112
zz	-3113
One	-3114
lex	-3115
▁aw	-3116
▁ve	-3117
▁Dan	-3118
▁Ide	-3119
▁Jan	-3120
▁col	-3121
▁fan	-3122
▁laz	-3123
▁tar	-3124
inent	-3125
▁circ	-3126
▁imit	-3127
comput	-3128
▁Gates	-3129
▁Other	-3130
▁media	-3131
▁night	-3132
▁occur	-3133
▁peers	-3134
▁plans	-3135
utation	-3136
▁conven	-3137
▁ingred	-3138
▁starts	-3139
▁syntax	-3140
▁territ	-3141
▁transl	-3142
▁tricks	-3143
▁weight	-3144
▁outcome	-3145
▁propert	-3146
▁administ	-3147
▁physical	-3148
▁pressure	-3149
▁previous	-3150
▁available	-3151
▁undergrads	-3152
▁necessarily	-3153
iny	-3154
reg	-3155
yle	-3156
▁II	-3157
▁Me	-3158
▁Ob	-3159
▁__	-3160
▁ir	-3161
back	-3162
dden	-3163
fact	-3164
oses	-3165
port	-3166
▁McC	-3167
▁Sch	-3168
ained	-3169
anced	-3170
early	-3171
esign	-3172
▁2005	-3173
▁area	-3174
▁lame	-3175
▁prem	-3176
▁role	-3177
▁teen	-3178
ements	-3179
iences	-3180
ording	-3181
▁Larry	-3182
▁Those	-3183
▁bound	-3184
▁curve	-3185
▁eight	-3186
▁fewer	-3187
▁proof	-3188
▁shift	-3189
inction	-3190
▁closer	-3191
▁gotten	-3192
▁grades	-3193
▁metaph	-3194
▁obsess	-3195
▁richer	-3196
▁scient	-3197
▁select	-3198
▁threat	-3199
▁achieve	-3200
▁careful	-3201
▁complex	-3202
▁dealing	-3203
▁equally	-3204
▁freedom	-3205
▁sources	-3206
▁trained	-3207
▁Everyone	-3208
▁accurate	-3209
▁argument	-3210
▁employee	-3211
▁involved	-3212
▁politics	-3213
▁property	-3214
▁recognize	-3215
▁admissions	-3216
▁constantly	-3217
▁generation	-3218
▁presumably	-3219
▁underlying	-3220
▁distinction	-3221
▁profitability	-3222
do	-3223
mb	-3224
dds	-3225
how	-3226
uit	-3227
▁iP	-3228
iful	-3229
iven	-3230
ourn	-3231
that	-3232
▁Bas	-3233
▁mus	-3234
▁ske	-3235
aying	-3236
▁evil	-3237
▁flaw	-3238
▁hasn	-3239
▁mine	-3240
▁pool	-3241
icking	-3242
▁drive	-3243
▁finan	-3244
▁heads	-3245
▁offic	-3246
▁pitch	-3247
atively	-3248
▁expand	-3249
▁explan	-3250
▁humans	-3251
▁margin	-3252
▁period	-3253
▁plenty	-3254
▁sudden	-3255
▁target	-3256
▁topics	-3257
▁allowed	-3258
▁contrad	-3259
▁deliver	-3260
▁earnest	-3261
▁experts	-3262
▁various	-3263
▁reaction	-3264
▁architect	-3265
▁mentioned	-3266
▁territory	-3267
▁tradition	-3268
▁importance	-3269
▁publishing	-3270
cks	-3271
ned	-3272
omm	-3273
oud	-3274
▁90	-3275
just	-3276
ored	-3277
sing	-3278
▁Woz	-3279
▁gap	-3280
▁tas	-3281
arthy	-3282
ulate	-3283
urely	-3284
▁Mich	-3285
▁adop	-3286
▁blog	-3287
▁exer	-3288
▁stri	-3289
▁suit	-3290
▁unus	-3291
ending	-3292
▁magaz	-3293
▁quiet	-3294
▁rates	-3295
▁recru	-3296
▁retro	-3297
▁schle	-3298
▁mainly	-3299
▁eminent	-3300
▁finding	-3301
▁founded	-3302
▁leading	-3303
▁letting	-3304
▁worried	-3305
perienced	-3306
▁McCarthy	-3307
▁Whatever	-3308
▁distract	-3309
▁unlikely	-3310
▁evolution	-3311
▁political	-3312
▁positives	-3313
▁practical	-3314
▁coincidence	-3315
▁distinguish	-3316
▁traditional	-3317
▁occasionally	-3318
aly	-3319
den	-3320
med	-3321
ste	-3322
▁Tw	-3323
ager	-3324
aive	-3325
ends	-3326
ener	-3327
iron	-3328
itts	-3329
land	-3330
oral	-3331
otle	-3332
▁Oct	-3333
▁Sar	-3334
▁Who	-3335
▁bal	-3336
▁fly	-3337
▁fre	-3338
▁mak	-3339
▁sex	-3340
▁tit	-3341
agues	-3342
aring	-3343
burgh	-3344
eared	-3345
eenth	-3346
stand	-3347
▁2004	-3348
▁Will	-3349
▁kept	-3350
▁none	-3351
ushing	-3352
▁Arist	-3353
▁apply	-3354
▁legit	-3355
▁lived	-3356
▁suppl	-3357
▁terri	-3358
ulation	-3359
▁Common	-3360
▁disapp	-3361
▁honest	-3362
▁normal	-3363
▁protot	-3364
▁stress	-3365
▁Univers	-3366
▁derived	-3367
▁dislike	-3368
▁granted	-3369
▁include	-3370
▁optimal	-3371
▁reprodu	-3372
▁systems	-3373
ittsburgh	-3374
▁disagree	-3375
▁intended	-3376
▁prestige	-3377
▁schedule	-3378
▁designing	-3379
▁identical	-3380
▁societies	-3381
fortunately	-3382
▁established	-3383
▁understanding	-3384
dit	-3385
eng	-3386
ief	-3387
lig	-3388
pet	-3389
ser	-3390
▁Sm	-3391
ivil	-3392
lete	-3393
oint	-3394
resp	-3395
▁Few	-3396
▁Mac	-3397
▁She	-3398
▁deb	-3399
▁rew	-3400
aging	-3401
pping	-3402
stein	-3403
▁prov	-3404
▁subt	-3405
▁wind	-3406
uments	-3407
▁weird	-3408
iveness	-3409
ustrial	-3410
▁career	-3411
▁equity	-3412
▁macros	-3413
▁option	-3414
▁reader	-3415
▁solved	-3416
▁benefit	-3417
▁environ	-3418
▁excited	-3419
▁markets	-3420
▁changing	-3421
▁collabor	-3422
▁measured	-3423
▁required	-3424
▁versions	-3425
▁Aristotle	-3426
▁beautiful	-3427
▁following	-3428
▁Pittsburgh	-3429
▁apparently	-3430
▁competitor	-3431
▁understood	-3432
▁description	-3433
))	-3434
ux	-3435
▁=	-3436
agg	-3437
ays	-3438
bor	-3439
not	-3440
▁14	-3441
▁3.	-3442
▁IP	-3443
ball	-3444
bing	-3445
chan	-3446
nces	-3447
onse	-3448
▁Can	-3449
▁era	-3450
▁odd	-3451
celer	-3452
eness	-3453
▁drop	-3454
▁meas	-3455
▁pict	-3456
▁rent	-3457
▁soph	-3458
linear	-3459
ounder	-3460
▁Being	-3461
▁costs	-3462
▁games	-3463
▁journ	-3464
▁maxim	-3465
▁older	-3466
▁recip	-3467
▁simpl	-3468
▁subur	-3469
▁water	-3470
forward	-3471
▁dinner	-3472
▁ensure	-3473
▁execut	-3474
▁former	-3475
▁implic	-3476
▁talked	-3477
▁valley	-3478
▁acceler	-3479
▁closely	-3480
▁customs	-3481
▁discuss	-3482
▁effects	-3483
▁leaving	-3484
▁network	-3485
▁respond	-3486
▁typical	-3487
▁frighten	-3488
▁thoughts	-3489
▁watching	-3490
▁buildings	-3491
▁decisions	-3492
▁libraries	-3493
▁solutions	-3494
▁definitely	-3495
▁developers	-3496
▁optimistic	-3497
▁reasonable	-3498
▁aggressively	-3499
▁Unfortunately	-3500
▁straightforward	-3501
0,	-3502
So	-3503
Don	-3504
▁16	-3505
▁Fl	-3506
▁MI	-3507
ands	-3508
atal	-3509
born	-3510
cont	-3511
erve	-3512
kens	-3513
soci	-3514
uary	-3515
used	-3516
▁Gra	-3517
bably	-3518
iling	-3519
level	-3520
orter	-3521
rated	-3522
▁cand	-3523
▁comb	-3524
▁cook	-3525
▁flow	-3526
▁harm	-3527
▁hate	-3528
▁meth	-3529
▁nerd	-3530
▁para	-3531
▁unex	-3532
advant	-3533
riting	-3534
▁Angel	-3535
▁graph	-3536
▁table	-3537
▁charge	-3538
▁histor	-3539
▁latter	-3540
▁moving	-3541
▁preced	-3542
▁slowly	-3543
▁subset	-3544
▁talent	-3545
▁theore	-3546
entially	-3547
▁choices	-3548
▁dismiss	-3549
▁private	-3550
▁regular	-3551
▁roughly	-3552
▁silicon	-3553
isticated	-3554
▁Actually	-3555
▁replaced	-3556
▁requires	-3557
▁response	-3558
▁suddenly	-3559
▁judgement	-3560
▁marketing	-3561
▁paragraph	-3562
▁professor	-3563
▁published	-3564
▁somewhere	-3565
▁colleagues	-3566
▁industrial	-3567
▁environment	-3568
af	-3569
ham	-3570
uzz	-3571
▁4.	-3572
----	-3573
ague	-3574
lied	-3575
niak	-3576
pril	-3577
▁MIT	-3578
▁dig	-3579
▁ran	-3580
enced	-3581
erial	-3582
fraid	-3583
iliar	-3584
ounds	-3585
uably	-3586
ugust	-3587
urity	-3588
which	-3589
▁1970	-3590
▁1998	-3591
▁News	-3592
▁intr	-3593
▁mass	-3594
▁spir	-3595
▁tree	-3596
ccinct	-3597
iously	-3598
▁April	-3599
▁March	-3600
▁accum	-3601
▁bulls	-3602
▁crazy	-3603
▁grasp	-3604
▁pages	-3605
▁skept	-3606
▁afraid	-3607
▁family	-3608
▁papers	-3609
▁recomm	-3610
▁supply	-3611
▁concent	-3612
▁greater	-3613
▁players	-3614
▁anywhere	-3615
▁decision	-3616
▁expenses	-3617
▁graduate	-3618
▁somewhat	-3619
▁teachers	-3620
▁underest	-3621
▁disadvant	-3622
▁effective	-3623
▁immediate	-3624
▁additional	-3625
▁constraint	-3626
▁discipline	-3627
▁innovation	-3628
▁experienced	-3629
▁superlinear	-3630
ael	-3631
aur	-3632
hit	-3633
ife	-3634
▁Es	-3635
▁ug	-3636
ffic	-3637
ique	-3638
lled	-3639
▁Feb	-3640
▁bog	-3641
▁dru	-3642
▁eat	-3643
▁unp	-3644
ocent	-3645
ufact	-3646
ulous	-3647
ureau	-3648
▁doct	-3649
▁frag	-3650
▁odds	-3651
▁plus	-3652
▁redu	-3653
▁sold	-3654
▁spec	-3655
▁viol	-3656
othing	-3657
▁Bayes	-3658
▁Serge	-3659
▁behav	-3660
▁carry	-3661
▁equal	-3662
▁grown	-3663
▁risky	-3664
▁schol	-3665
▁shock	-3666
▁subst	-3667
ausible	-3668
ounding	-3669
▁August	-3670
▁Before	-3671
▁Reddit	-3672
▁addict	-3673
▁advert	-3674
▁desire	-3675
▁instit	-3676
▁probab	-3677
▁remind	-3678
▁tokens	-3679
▁trolls	-3680
volution	-3681
▁Hackers	-3682
▁January	-3683
▁Wozniak	-3684
▁ancient	-3685
▁motives	-3686
▁reflect	-3687
▁wasting	-3688
identally	-3689
▁attitude	-3690
▁compiler	-3691
▁constant	-3692
▁leverage	-3693
▁manufact	-3694
▁succinct	-3695
▁employers	-3696
▁assumption	-3697
▁originally	-3698
▁retrospect	-3699
▁succeeding	-3700
▁microcomput	-3701
▁prestigious	-3702
▁sophisticated	-3703
3.	-3704
As	-3705
We	-3706
une	-3707
unt	-3708
ards	-3709
arms	-3710
rest	-3711
rior	-3712
yond	-3713
▁fit	-3714
▁loo	-3715
▁mix	-3716
aters	-3717
uries	-3718
▁Much	-3719
▁Work	-3720
▁anim	-3721
▁uses	-3722
▁aware	-3723
▁bogus	-3724
▁image	-3725
▁labor	-3726
▁liber	-3727
▁naive	-3728
▁parad	-3729
▁ramen	-3730
▁spams	-3731
▁tells	-3732
ructure	-3733
usiness	-3734
▁Airbnb	-3735
▁Newton	-3736
▁Sergey	-3737
▁beyond	-3738
▁candid	-3739
▁client	-3740
▁destro	-3741
▁listen	-3742
▁mechan	-3743
▁medioc	-3744
▁remark	-3745
▁thinks	-3746
fortable	-3747
▁Usually	-3748
▁benevol	-3749
▁corrupt	-3750
▁defined	-3751
▁delight	-3752
▁despite	-3753
▁stopped	-3754
▁turning	-3755
▁unusual	-3756
▁bullshit	-3757
▁combined	-3758
▁compared	-3759
▁fortunes	-3760
▁relative	-3761
▁sciences	-3762
▁carefully	-3763
▁community	-3764
▁convinced	-3765
▁depending	-3766
▁naturally	-3767
▁paintings	-3768
▁prototype	-3769
▁statement	-3770
▁developing	-3771
▁difficulty	-3772
▁management	-3773
▁popularity	-3774
▁ultimately	-3775
++	-3776
6,	-3777
▁Z	-3778
def	-3779
ids	-3780
adem	-3781
ardo	-3782
bers	-3783
ches	-3784
eter	-3785
ften	-3786
side	-3787
time	-3788
▁Cal	-3789
▁IPO	-3790
▁Mar	-3791
▁Ral	-3792
▁San	-3793
▁War	-3794
▁cru	-3795
▁gar	-3796
▁pen	-3797
▁rad	-3798
▁vol	-3799
aggar	-3800
cript	-3801
eless	-3802
empor	-3803
itted	-3804
olute	-3805
using	-3806
▁Fort	-3807
▁Fran	-3808
▁Leon	-3809
▁Rich	-3810
▁bank	-3811
▁ends	-3812
▁fier	-3813
▁fill	-3814
▁host	-3815
▁lets	-3816
▁runs	-3817
▁virt	-3818
idable	-3819
▁Geoff	-3820
▁Techn	-3821
▁Users	-3822
▁World	-3823
▁block	-3824
▁final	-3825
▁monop	-3826
▁prior	-3827
▁prove	-3828
▁signs	-3829
▁stret	-3830
▁style	-3831
▁tempt	-3832
▁title	-3833
▁truly	-3834
inarily	-3835
osition	-3836
▁Taggar	-3837
▁clever	-3838
▁correl	-3839
▁elimin	-3840
▁limits	-3841
▁morale	-3842
▁policy	-3843
▁Suppose	-3844
▁central	-3845
▁contrib	-3846
▁demoral	-3847
▁largely	-3848
▁lawyers	-3849
▁limited	-3850
▁managed	-3851
▁operate	-3852
▁restaur	-3853
▁traffic	-3854
▁waiting	-3855
▁acquired	-3856
▁choosing	-3857
▁comments	-3858
▁dramatic	-3859
▁external	-3860
▁interpre	-3861
▁invented	-3862
▁launched	-3863
▁material	-3864
▁national	-3865
▁reproduce	-3866
▁surprises	-3867
▁convenient	-3868
▁literature	-3869
▁statements	-3870
▁departments	-3871
▁discoveries	-3872
▁explanation	-3873
▁automatically	-3874
▁probabilities	-3875
▁unconsciously	-3876
SD	-3877
▁Q	-3878
cer	-3879
ius	-3880
ted	-3881
▁12	-3882
iest	-3883
ieth	-3884
rees	-3885
▁Dav	-3886
▁Let	-3887
▁awk	-3888
▁den	-3889
▁led	-3890
▁mal	-3891
▁six	-3892
▁smo	-3893
allel	-3894
erson	-3895
irect	-3896
▁Back	-3897
▁Harj	-3898
▁Only	-3899
▁base	-3900
▁body	-3901
▁date	-3902
▁feed	-3903
▁note	-3904
▁prev	-3905
▁shop	-3906
▁star	-3907
▁While	-3908
▁chann	-3909
▁cycle	-3910
▁divid	-3911
▁enorm	-3912
▁movie	-3913
▁music	-3914
▁neigh	-3915
▁refer	-3916
▁uncom	-3917
▁Better	-3918
▁advise	-3919
▁circum	-3920
▁corpus	-3921
▁failed	-3922
▁labels	-3923
▁subtle	-3924
▁vision	-3925
▁Fortran	-3926
▁Ralston	-3927
▁awkward	-3928
▁browser	-3929
▁classic	-3930
▁pushing	-3931
▁somehow	-3932
▁teacher	-3933
▁Leonardo	-3934
▁behavior	-3935
▁colleges	-3936
▁innocent	-3937
▁mediocre	-3938
▁parallel	-3939
mindedness	-3940
▁developed	-3941
▁functions	-3942
▁increases	-3943
▁contradict	-3944
▁influenced	-3945
▁sufficient	-3946
▁considering	-3947
▁exponential	-3948
▁expressions	-3949
▁optimization	-3950
▁conversations	-3951
go	-3952
lo	-3953
alo	-3954
amp	-3955
oly	-3956
airs	-3957
apan	-3958
imil	-3959
isco	-3960
pass	-3961
ript	-3962
▁Tim	-3963
▁men	-3964
▁pin	-3965
▁spo	-3966
asant	-3967
ician	-3968
orpor	-3969
press	-3970
tical	-3971
works	-3972
▁Hard	-3973
▁Over	-3974
▁anom	-3975
▁bear	-3976
▁bias	-3977
▁dish	-3978
▁puzz	-3979
▁repe	-3980
▁rise	-3981
▁tiny	-3982
▁wave	-3983
seless	-3984
▁David	-3985
▁Great	-3986
▁Often	-3987
▁above	-3988
▁forum	-3989
▁lying	-3990
▁suits	-3991
entions	-3992
mission	-3993
▁Anyone	-3994
▁Except	-3995
▁backgr	-3996
▁bureau	-3997
▁insist	-3998
▁median	-3999
▁novels	-4000
▁salary	-4001
▁script	-4002
▁Obvious	-4003
▁compens	-4004
▁details	-4005
▁discard	-4006
▁drawing	-4007
▁efforts	-4008
▁offices	-4009
▁organic	-4010
▁suppose	-4011
▁Bayesian	-4012
▁absolute	-4013
▁addition	-4014
▁appeared	-4015
▁claiming	-4016
▁defining	-4017
▁distance	-4018
▁metaphor	-4019
▁suppress	-4020
▁measuring	-4021
▁perfectly	-4022
▁University	-4023
▁reputation	-4024
▁individuals	-4025
▁possibility	-4026
▁implications	-4027
▁procrastination	-4028
An	-4029
ha	-4030
But	-4031
acc	-4032
but	-4033
een	-4034
elf	-4035
hop	-4036
sum	-4037
ung	-4038
▁$3	-4039
heet	-4040
iers	-4041
illi	-4042
rate	-4043
▁10%	-4044
▁Inc	-4045
▁dut	-4046
▁iPh	-4047
▁sem	-4048
arant	-4049
erved	-4050
ights	-4051
▁2007	-4052
▁ball	-4053
▁cold	-4054
▁demo	-4055
▁fake	-4056
▁fire	-4057
▁fool	-4058
▁hits	-4059
▁hubs	-4060
▁orth	-4061
▁quit	-4062
▁wall	-4063
▁wide	-4064
uitive	-4065
▁Japan	-4066
▁Sarah	-4067
▁alive	-4068
▁blind	-4069
▁calls	-4070
▁cover	-4071
▁empir	-4072
▁indic	-4073
▁legal	-4074
▁moral	-4075
▁notes	-4076
▁risks	-4077
▁track	-4078
▁train	-4079
▁vague	-4080
▁Harlin	-4081
▁Having	-4082
▁Nearly	-4083
▁Unless	-4084
▁artist	-4085
▁associ	-4086
▁deeply	-4087
▁drives	-4088
▁ground	-4089
▁prices	-4090
▁protoc	-4091
▁shares	-4092
▁showed	-4093
▁unique	-4094
igration	-4095
▁Michael	-4096
▁October	-4097
▁address	-4098
▁artists	-4099
▁beliefs	-4100
▁charism	-4101
▁combine	-4102
▁element	-4103
▁explore	-4104
▁guarant	-4105
▁install	-4106
▁intrins	-4107
▁journal	-4108
▁physics	-4109
▁picture	-4110
▁shorter	-4111
▁survive	-4112
▁useless	-4113
▁visible	-4114
▁walking	-4115
▁younger	-4116
▁Probably	-4117
▁Starting	-4118
▁complain	-4119
▁exercise	-4120
▁greatest	-4121
▁hypothes	-4122
▁identity	-4123
▁painters	-4124
▁positive	-4125
▁possibly	-4126
▁according	-4127
▁apartment	-4128
▁basically	-4129
▁committed	-4130
▁expertise	-4131
▁fundament	-4132
▁interrupt	-4133
▁realizing	-4134
▁transform	-4135
▁twentieth	-4136
▁applicants	-4137
▁characters	-4138
▁collection	-4139
▁conference	-4140
▁connection	-4141
▁credential	-4142
▁expression	-4143
▁formidable	-4144
▁inevitably	-4145
▁differently	-4146
▁responsible	-4147
▁distribution	-4148
▁inexperienced	-4149
▁proportionate	-4150
sc	-4151
xy	-4152
yn	-4153
alk	-4154
ode	-4155
ope	-4156
ulg	-4157
▁40	-4158
▁5%	-4159
▁5.	-4160
▁Fr	-4161
▁OS	-4162
▁Pr	-4163
aves	-4164
erke	-4165
greg	-4166
izes	-4167
more	-4168
ured	-4169
▁Big	-4170
▁Cur	-4171
▁Sun	-4172
▁ban	-4173
arely	-4174
ision	-4175
ouses	-4176
overy	-4177
under	-4178
▁Both	-4179
▁From	-4180
▁apps	-4181
▁bold	-4182
▁diss	-4183
▁drag	-4184
▁hurt	-4185
▁load	-4186
▁nons	-4187
▁surr	-4188
▁thir	-4189
▁ugly	-4190
change	-4191
iented	-4192
lessly	-4193
▁Basic	-4194
▁Berke	-4195
▁Franc	-4196
▁black	-4197
▁dream	-4198
▁eager	-4199
▁facto	-4200
▁moved	-4201
▁ridic	-4202
▁union	-4203
lection	-4204
▁School	-4205
▁across	-4206
▁editor	-4207
▁fierce	-4208
▁models	-4209
▁mother	-4210
▁spirit	-4211
▁trends	-4212
ifferent	-4213
sounding	-4214
▁advance	-4215
▁applied	-4216
▁evolved	-4217
▁fortune	-4218
▁ignored	-4219
▁overall	-4220
▁speaker	-4221
▁whereas	-4222
ification	-4223
intuitive	-4224
▁Berkeley	-4225
▁alarming	-4226
▁everyday	-4227
▁fraction	-4228
▁neighbor	-4229
▁networks	-4230
▁security	-4231
▁speaking	-4232
▁training	-4233
▁twenties	-4234
▁Obviously	-4235
▁competing	-4236
▁dishonest	-4237
▁education	-4238
▁extremely	-4239
▁recommend	-4240
▁reporters	-4241
▁uncertain	-4242
▁discussion	-4243
▁impression	-4244
▁legitimate	-4245
▁alternative	-4246
▁distraction	-4247
▁effectively	-4248
▁generations	-4249
▁imagination	-4250
▁dramatically	-4251
▁specifically	-4252
5.	-4253
eg	-4254
tm	-4255
ts	-4256
You	-4257
___	-4258
ern	-4259
▁Em	-4260
▁Ra	-4261
▁ut	-4262
That	-4263
face	-4264
oman	-4265
otes	-4266
reen	-4267
wind	-4268
▁bed	-4269
▁dro	-4270
▁foo	-4271
▁mod	-4272
ander	-4273
anies	-4274
arter	-4275
ength	-4276
rench	-4277
while	-4278
▁1960	-4279
▁1980	-4280
▁2008	-4281
▁Conf	-4282
▁Ford	-4283
▁Hist	-4284
▁Mark	-4285
▁Spam	-4286
▁foot	-4287
▁hero	-4288
▁rely	-4289
▁task	-4290
haired	-4291
irable	-4292
opular	-4293
ounded	-4294
ultane	-4295
▁Would	-4296
▁adult	-4297
▁cares	-4298
▁civil	-4299
▁cross	-4300
▁hired	-4301
▁incon	-4302
▁keeps	-4303
▁merch	-4304
▁steal	-4305
▁toler	-4306
▁twice	-4307
▁Partly	-4308
▁Surely	-4309
▁acting	-4310
▁alarms	-4311
▁attach	-4312
▁brilli	-4313
▁desper	-4314
▁engage	-4315
▁excess	-4316
▁lesson	-4317
▁losing	-4318
▁pointy	-4319
▁proper	-4320
▁senses	-4321
▁stream	-4322
▁unions	-4323
▁yields	-4324
oriented	-4325
▁conceal	-4326
▁extract	-4327
▁hearing	-4328
▁infrast	-4329
▁mystery	-4330
▁putting	-4331
▁reality	-4332
▁advanced	-4333
▁breaking	-4334
▁employer	-4335
▁explains	-4336
▁familiar	-4337
▁hundreds	-4338
▁religion	-4339
▁resource	-4340
▁scholars	-4341
▁weakness	-4342
▁worrying	-4343
▁constrain	-4344
▁discovery	-4345
▁exception	-4346
▁impressed	-4347
▁influence	-4348
▁introduce	-4349
▁simultane	-4350
▁controvers	-4351
▁inevitable	-4352
▁principles	-4353
▁statistics	-4354
▁convertible	-4355
▁correlation	-4356
▁encouraging	-4357
▁interpreter	-4358
▁infrastructure	-4359
5,	-4360
ML	-4361
ik	-4362
ym	-4363
box	-4364
eme	-4365
iom	-4366
ium	-4367
ups	-4368
▁CS	-4369
▁Sl	-4370
away	-4371
ngth	-4372
▁His	-4373
▁Lin	-4374
▁Man	-4375
▁Par	-4376
▁Ron	-4377
▁box	-4378
▁emp	-4379
▁lad	-4380
▁lif	-4381
▁log	-4382
▁neg	-4383
▁noo	-4384
▁oil	-4385
▁rat	-4386
▁sli	-4387
▁sus	-4388
▁ver	-4389
attle	-4390
ellow	-4391
house	-4392
tered	-4393
▁Kids	-4394
▁eleg	-4395
▁emer	-4396
▁heur	-4397
▁jump	-4398
▁lazy	-4399
▁neut	-4400
▁plat	-4401
▁root	-4402
▁tick	-4403
▁upon	-4404
graphy	-4405
stream	-4406
ubject	-4407
▁Flore	-4408
▁delay	-4409
▁drift	-4410
▁elect	-4411
▁grand	-4412
▁laugh	-4413
▁light	-4414
▁match	-4415
▁paths	-4416
▁sharp	-4417
instein	-4418
stances	-4419
▁access	-4420
▁agreed	-4421
▁aspect	-4422
▁assign	-4423
▁behave	-4424
▁conver	-4425
▁emails	-4426
▁genius	-4427
▁helped	-4428
▁iPhone	-4429
▁length	-4430
▁memory	-4431
▁method	-4432
▁movies	-4433
▁thread	-4434
nowledge	-4435
▁destroy	-4436
▁offered	-4437
▁seeming	-4438
▁annoying	-4439
▁consists	-4440
▁fashions	-4441
▁indirect	-4442
▁overlook	-4443
▁rational	-4444
▁strength	-4445
▁Otherwise	-4446
▁afterward	-4447
▁believing	-4448
▁interests	-4449
▁obstacles	-4450
▁organized	-4451
▁plausible	-4452
▁proposing	-4453
▁Revolution	-4454
▁Technology	-4455
▁acceptable	-4456
▁attractive	-4457
▁conclusion	-4458
▁generating	-4459
▁competitive	-4460
▁consequence	-4461
▁credentials	-4462
▁distinctive	-4463
▁frightening	-4464
▁disadvantage	-4465
▁technological	-4466
▁mathematicians	-4467
!!	-4468
rs	-4469
acy	-4470
bes	-4471
fic	-4472
mos	-4473
sis	-4474
▁IT	-4475
call	-4476
cure	-4477
ding	-4478
ford	-4479
icip	-4480
itud	-4481
mmet	-4482
uses	-4483
▁Hen	-4484
▁PhD	-4485
▁Yes	-4486
▁ads	-4487
▁bab	-4488
▁mob	-4489
▁vac	-4490
ample	-4491
elled	-4492
idden	-4493
ieval	-4494
order	-4495
ruary	-4496
▁CEOs	-4497
▁Dece	-4498
▁Germ	-4499
▁Jack	-4500
▁Sept	-4501
▁burn	-4502
▁debt	-4503
▁decl	-4504
▁obso	-4505
▁prim	-4506
▁pros	-4507
▁rece	-4508
▁shot	-4509
▁sink	-4510
▁tool	-4511
ashion	-4512
indulg	-4513
itudes	-4514
ounter	-4515
ptions	-4516
ulated	-4517
▁Langu	-4518
▁alien	-4519
▁areas	-4520
▁chose	-4521
▁color	-4522
▁drugs	-4523
▁embod	-4524
▁favor	-4525
▁humor	-4526
▁issue	-4527
▁lists	-4528
▁quant	-4529
▁towns	-4530
▁bother	-4531
▁caused	-4532
▁damage	-4533
▁defend	-4534
▁dollar	-4535
▁forget	-4536
▁forgot	-4537
▁heresy	-4538
▁inborn	-4539
▁killed	-4540
▁lawyer	-4541
▁modern	-4542
▁nonpro	-4543
▁skills	-4544
▁strict	-4545
▁tended	-4546
▁thesis	-4547
▁travel	-4548
▁truths	-4549
▁varies	-4550
▁anymore	-4551
▁attempt	-4552
▁driving	-4553
▁moments	-4554
▁neutral	-4555
▁spectac	-4556
▁December	-4557
▁Einstein	-4558
▁February	-4559
▁Florence	-4560
▁articles	-4561
▁avoiding	-4562
▁bureaucr	-4563
▁discoura	-4564
▁earnings	-4565
▁incompet	-4566
▁internal	-4567
▁magazine	-4568
▁obsolete	-4569
▁prepared	-4570
▁Companies	-4571
▁Francisco	-4572
▁September	-4573
▁administr	-4574
▁condition	-4575
▁outsiders	-4576
▁president	-4577
▁seriously	-4578
▁succeeded	-4579
▁Especially	-4580
▁Industrial	-4581
▁comparison	-4582
▁implicitly	-4583
▁personally	-4584
▁population	-4585
▁remarkable	-4586
▁engineering	-4587
▁politicians	-4588
▁technologies	-4589
▁intellectually	-4590
2,	-4591
5%	-4592
80	-4593
my	-4594
▁&	-4595
▁+	-4596
00,	-4597
cra	-4598
oun	-4599
ror	-4600
uci	-4601
uum	-4602
▁(1	-4603
▁11	-4604
▁7.	-4605
▁Ne	-4606
appy	-4607
berg	-4608
eral	-4609
ests	-4610
fess	-4611
iche	-4612
lene	-4613
oore	-4614
ouch	-4615
rian	-4616
road	-4617
vity	-4618
▁Arc	-4619
▁Joe	-4620
▁ack	-4621
▁cub	-4622
▁eye	-4623
▁unh	-4624
aller	-4625
icism	-4626
prene	-4627
ucius	-4628
▁Alto	-4629
▁Nove	-4630
▁arts	-4631
▁band	-4632
▁blow	-4633
▁door	-4634
▁eval	-4635
▁fame	-4636
▁flat	-4637
▁forb	-4638
▁gold	-4639
▁hier	-4640
▁phot	-4641
▁remo	-4642
▁sake	-4643
▁seek	-4644
▁vest	-4645
anging	-4646
source	-4647
▁Could	-4648
▁Henry	-4649
▁atmos	-4650
▁axiom	-4651
▁brief	-4652
▁chunk	-4653
▁dress	-4654
▁enfor	-4655
▁enter	-4656
▁fails	-4657
▁links	-4658
▁minim	-4659
▁minor	-4660
▁noise	-4661
▁occup	-4662
▁screw	-4663
▁spare	-4664
▁talks	-4665
▁tired	-4666
reprene	-4667
▁Angels	-4668
▁During	-4669
▁Graham	-4670
▁barely	-4671
▁credit	-4672
▁detect	-4673
▁dispro	-4674
▁disput	-4675
▁father	-4676
▁finish	-4677
▁please	-4678
▁retail	-4679
▁screen	-4680
▁smooth	-4681
▁writes	-4682
▁applies	-4683
▁calling	-4684
▁cheaply	-4685
▁degener	-4686
▁degrees	-4687
▁failing	-4688
▁figured	-4689
▁helpful	-4690
▁strateg	-4691
▁believed	-4692
▁billiona	-4693
▁bottlene	-4694
▁discount	-4695
▁explicit	-4696
▁extraord	-4697
▁figuring	-4698
▁hierarch	-4699
▁rejected	-4700
▁striking	-4701
▁teaching	-4702
▁ultimate	-4703
▁Confucius	-4704
▁agreement	-4705
▁centuries	-4706
▁cofounder	-4707
▁engineers	-4708
▁financial	-4709
▁sentences	-4710
▁therefore	-4711
▁background	-4712
▁commitment	-4713
▁publishers	-4714
▁regardless	-4715
▁resistance	-4716
▁differences	-4717
▁fundamental	-4718
▁ingredients	-4719
▁circumstances	-4720
▁comparatively	-4721
▁underestimate	-4722
Be	-4723
add	-4724
ban	-4725
ech	-4726
ees	-4727
ety	-4728
fer	-4729
oon	-4730
ray	-4731
ses	-4732
win	-4733
you	-4734
▁13	-4735
▁17	-4736
▁6.	-4737
▁ri	-4738
aren	-4739
erds	-4740
here	-4741
omin	-4742
rite	-4743
▁Art	-4744
▁God	-4745
▁Ray	-4746
▁mil	-4747
▁tab	-4748
▁unb	-4749
alect	-4750
iforn	-4751
inter	-4752
pless	-4753
ribly	-4754
ulian	-4755
▁100%	-4756
▁Palo	-4757
▁Such	-4758
▁flex	-4759
▁funn	-4760
▁gaps	-4761
▁vote	-4762
▁wins	-4763
ensive	-4764
everal	-4765
▁_____	-4766
▁ended	-4767
▁fatal	-4768
▁flaws	-4769
▁ideal	-4770
▁ignor	-4771
▁inher	-4772
▁tools	-4773
▁Econom	-4774
▁Wealth	-4775
▁academ	-4776
▁bosses	-4777
▁checks	-4778
▁double	-4779
▁format	-4780
▁orders	-4781
▁prison	-4782
▁reluct	-4783
▁street	-4784
ological	-4785
standing	-4786
▁Several	-4787
▁Working	-4788
▁comment	-4789
▁conspic	-4790
▁corresp	-4791
▁factors	-4792
▁finance	-4793
▁forward	-4794
▁hardest	-4795
▁objects	-4796
▁painful	-4797
▁paradox	-4798
▁richest	-4799
▁schleps	-4800
▁spreads	-4801
▁stretch	-4802
▁teenage	-4803
▁traject	-4804
▁treated	-4805
▁workers	-4806
▁November	-4807
▁accepted	-4808
▁arguably	-4809
▁incorpor	-4810
▁insiders	-4811
▁instinct	-4812
▁machines	-4813
▁measures	-4814
▁noticing	-4815
▁offering	-4816
▁official	-4817
▁platform	-4818
▁released	-4819
▁releases	-4820
▁salaries	-4821
▁terrible	-4822
▁Something	-4823
▁existence	-4824
▁increased	-4825
▁preceding	-4826
▁selection	-4827
▁successes	-4828
▁cofounders	-4829
▁decreasing	-4830
▁connections	-4831
▁consequences	-4832
▁disagreement	-4833
▁controversial	-4834
▁opportunities	-4835
▁simultaneously	-4836
6.	-4837
bo	-4838
tc	-4839
ze	-4840
▁*	-4841
▁[	-4842
asc	-4843
bia	-4844
cut	-4845
ery	-4846
gen	-4847
iel	-4848
ina	-4849
ole	-4850
pat	-4851
rum	-4852
see	-4853
▁8.	-4854
▁RI	-4855
cape	-4856
cles	-4857
etch	-4858
irst	-4859
itto	-4860
mond	-4861
uild	-4862
▁$50	-4863
▁195	-4864
▁Acc	-4865
▁Fin	-4866
▁Rel	-4867
▁Try	-4868
▁Two	-4869
▁bur	-4870
▁fac	-4871
▁jun	-4872
▁mad	-4873
▁scr	-4874
▁sen	-4875
▁sym	-4876
comes	-4877
etime	-4878
igent	-4879
inite	-4880
phere	-4881
usion	-4882
▁Unix	-4883
▁amaz	-4884
▁anti	-4885
▁born	-4886
▁eyes	-4887
▁heav	-4888
▁land	-4889
▁pack	-4890
▁pays	-4891
▁perv	-4892
ession	-4893
inking	-4894
ritten	-4895
uously	-4896
▁Intel	-4897
▁Nerds	-4898
▁artif	-4899
▁cared	-4900
▁elite	-4901
▁fault	-4902
▁fully	-4903
▁grade	-4904
▁macro	-4905
▁mouth	-4906
▁oblig	-4907
▁reply	-4908
▁solid	-4909
▁stops	-4910
▁stuck	-4911
▁taboo	-4912
▁token	-4913
icially	-4914
ificial	-4915
ifornia	-4916
inating	-4917
▁Design	-4918
▁French	-4919
▁Julian	-4920
▁eating	-4921
▁exclus	-4922
▁excuse	-4923
▁habits	-4924
▁highly	-4925
▁ladder	-4926
▁makers	-4927
▁player	-4928
▁safely	-4929
▁arguing	-4930
▁capable	-4931
▁clients	-4932
▁closest	-4933
▁compare	-4934
▁focused	-4935
▁leaders	-4936
▁pretend	-4937
▁recipes	-4938
▁winning	-4939
mentation	-4940
▁Japanese	-4941
▁attached	-4942
▁compress	-4943
▁engaging	-4944
▁fighting	-4945
▁interact	-4946
▁inviting	-4947
▁marginal	-4948
▁medieval	-4949
▁monopoly	-4950
▁obstacle	-4951
▁patterns	-4952
▁planning	-4953
▁subjects	-4954
▁threaten	-4955
▁brilliant	-4956
▁childhood	-4957
▁committee	-4958
▁eliminate	-4959
▁explained	-4960
▁merchants	-4961
▁translate	-4962
▁atmosphere	-4963
▁benevolent	-4964
▁conditions	-4965
▁hypothesis	-4966
▁ingredient	-4967
▁overlooked	-4968
▁discovering	-4969
▁governments	-4970
▁measurement	-4971
▁resourceful	-4972
▁theoretical	-4973
▁acquisitions	-4974
▁concentrated	-4975
▁neighborhood	-4976
▁unfortunately	-4977
!"	-4978
Re	-4979
cl	-4980
Why	-4981
egr	-4982
foo	-4983
osh	-4984
roo	-4985
ula	-4986
ume	-4987
▁0"	-4988
▁DH	-4989
▁Er	-4990
▁sn	-4991
amic	-4992
ears	-4993
erry	-4994
obol	-4995
oler	-4996
pret	-4997
prom	-4998
reet	-4999
rist	-5000
▁$10	-5001
▁Bel	-5002
▁Dar	-5003
▁Pre	-5004
▁Rec	-5005
▁ath	-5006
▁cas	-5007
▁doc	-5008
▁etc	-5009
▁gir	-5010
▁lux	-5011
▁pun	-5012
▁shi	-5013
▁shr	-5014
▁twe	-5015
▁vot	-5016
agers	-5017
agger	-5018
allen	-5019
aptop	-5020
clear	-5021
gines	-5022
othet	-5023
right	-5024
verty	-5025
▁Amaz	-5026
▁Free	-5027
▁July	-5028
▁Make	-5029
▁Math	-5030
▁Pain	-5031
▁Till	-5032
▁asks	-5033
▁capt	-5034
▁cart	-5035
▁clim	-5036
▁disp	-5037
▁noob	-5038
▁priv	-5039
▁race	-5040
▁shut	-5041
▁suff	-5042
▁tast	-5043
▁tech	-5044
▁whom	-5045
atives	-5046
ifying	-5047
pected	-5048
ynamic	-5049
▁McDon	-5050
▁Store	-5051
▁Think	-5052
▁faces	-5053
▁fifty	-5054
▁guide	-5055
▁inexp	-5056
▁lunch	-5057
▁outli	-5058
▁pinch	-5059
▁quote	-5060
▁range	-5061
▁sacri	-5062
▁touch	-5063
▁trees	-5064
▁youth	-5065
▁Darwin	-5066
▁Within	-5067
▁cultiv	-5068
▁expend	-5069
▁fixing	-5070
▁handle	-5071
▁haters	-5072
▁health	-5073
▁junior	-5074
▁laptop	-5075
▁police	-5076
▁sketch	-5077
▁typing	-5078
▁unfair	-5079
▁values	-5080
ertainly	-5081
perience	-5082
▁England	-5083
▁Ideally	-5084
▁Raising	-5085
▁Raymond	-5086
▁Richard	-5087
▁balance	-5088
▁challen	-5089
▁channel	-5090
▁clothes	-5091
▁editors	-5092
▁engines	-5093
▁happier	-5094
▁keeping	-5095
▁library	-5096
▁oneself	-5097
▁origins	-5098
▁poverty	-5099
▁propose	-5100
▁sending	-5101
othetical	-5102
▁disaster	-5103
▁implicit	-5104
▁majority	-5105
▁momentum	-5106
▁optimism	-5107
▁outcomes	-5108
▁overcome	-5109
▁speakers	-5110
▁tendency	-5111
▁wherever	-5112
▁Americans	-5113
▁answering	-5114
▁attitudes	-5115
▁hierarchy	-5116
▁magnitude	-5117
▁pointless	-5118
▁producing	-5119
▁reluctant	-5120
▁resources	-5121
▁variables	-5122
▁introduced	-5123
▁trajectory	-5124
▁conclusions	-5125
▁importantly	-5126
▁unconscious	-5127
▁consistently	-5128
▁corporations	-5129
▁hypothetical	-5130
▁succinctness	-5131
ky	-5132
tt	-5133
▁_	-5134
And	-5135
Web	-5136
boy	-5137
ded	-5138
het	-5139
jax	-5140
mit	-5141
oia	-5142
oom	-5143
▁$5	-5144
▁HN	-5145
▁Ke	-5146
▁Sy	-5147
▁Tr	-5148
▁Up	-5149
arsh	-5150
ateg	-5151
bitr	-5152
case	-5153
ells	-5154
fits	-5155
fund	-5156
gain	-5157
nder	-5158
oles	-5159
ones	-5160
phas	-5161
ripe	-5162
unks	-5163
▁ITA	-5164
▁Vis	-5165
▁div	-5166
▁flo	-5167
▁mur	-5168
▁reb	-5169
▁sue	-5170
▁tri	-5171
▁van	-5172
aming	-5173
books	-5174
icate	-5175
olies	-5176
sters	-5177
ysics	-5178
▁1000	-5179
▁1950	-5180
▁2010	-5181
▁2020	-5182
▁Aust	-5183
▁Blub	-5184
▁Fund	-5185
▁Grad	-5186
▁Mean	-5187
▁Stan	-5188
▁anal	-5189
▁asse	-5190
▁bran	-5191
▁crap	-5192
▁doom	-5193
▁join	-5194
▁pure	-5195
▁rank	-5196
▁spot	-5197
▁tact	-5198
▁tone	-5199
▁vict	-5200
▁west	-5201
▁wild	-5202
Thanks	-5203
acious	-5204
unning	-5205
▁Cobol	-5206
▁Ditto	-5207
▁Money	-5208
▁added	-5209
▁argue	-5210
▁aside	-5211
▁basis	-5212
▁categ	-5213
▁coast	-5214
▁datab	-5215
▁hands	-5216
▁maker	-5217
▁niche	-5218
▁party	-5219
▁ratio	-5220
▁seats	-5221
▁taxes	-5222
looking	-5223
▁Almost	-5224
▁Amazon	-5225
▁Stripe	-5226
▁button	-5227
▁caught	-5228
▁define	-5229
▁device	-5230
▁estate	-5231
▁manual	-5232
▁master	-5233
▁minute	-5234
▁owners	-5235
▁picked	-5236
▁pushed	-5237
▁record	-5238
▁schlep	-5239
▁specul	-5240
▁suspic	-5241
▁visual	-5242
▁winner	-5243
fficient	-5244
iousness	-5245
▁Writing	-5246
▁avoided	-5247
▁broader	-5248
▁brought	-5249
▁conflic	-5250
▁discont	-5251
▁dissert	-5252
▁errands	-5253
▁highest	-5254
▁maximum	-5255
▁persist	-5256
▁picking	-5257
▁pointed	-5258
▁removed	-5259
▁rewards	-5260
▁rolling	-5261
▁sharply	-5262
▁simpler	-5263
▁strings	-5264
▁studied	-5265
▁suburbs	-5266
▁Business	-5267
▁European	-5268
▁Software	-5269
▁actively	-5270
▁affected	-5271
▁designer	-5272
▁disputes	-5273
▁earliest	-5274
▁elements	-5275
▁estimate	-5276
▁hackable	-5277
▁included	-5278
▁inherent	-5279
▁instance	-5280
▁laziness	-5281
▁particip	-5282
▁prevents	-5283
▁spectrum	-5284
▁Certainly	-5285
▁addictive	-5286
▁arguments	-5287
▁audiences	-5288
▁consumers	-5289
▁elsewhere	-5290
▁generated	-5291
▁heuristic	-5292
▁religious	-5293
▁resulting	-5294
▁scripting	-5295
▁skeptical	-5296
▁throwaway	-5297
▁California	-5298
▁artificial	-5299
▁compensate	-5300
▁correspond	-5301
▁describing	-5302
▁ordinarily	-5303
▁ridiculous	-5304
▁thresholds	-5305
▁authorities	-5306
▁constrained	-5307
▁experiences	-5308
▁immigration	-5309
▁personality	-5310
▁restaurants	-5311
▁specialized	-5312
▁statistical	-5313
▁incidentally	-5314
▁intrinsically	-5315
▁significantly	-5316
▁implementation	-5317
▁microcomputers	-5318
",	-5319
3,	-5320
8,	-5321
NA	-5322
St	-5323
To	-5324
co	-5325
ek	-5326
sm	-5327
▁-	-5328
arr	-5329
ato	-5330
dot	-5331
fol	-5332
ita	-5333
itz	-5334
ocr	-5335
rog	-5336
▁1%	-5337
▁70	-5338
▁Ab	-5339
cies	-5340
duct	-5341
edge	-5342
icle	-5343
inet	-5344
mble	-5345
odox	-5346
osen	-5347
page	-5348
sell	-5349
ties	-5350
▁$20	-5351
▁DNA	-5352
▁Dep	-5353
▁Fil	-5354
▁Ken	-5355
▁Law	-5356
▁Was	-5357
▁ast	-5358
▁cat	-5359
▁fed	-5360
▁lin	-5361
▁sad	-5362
▁sle	-5363
▁urg	-5364
asive	-5365
ister	-5366
merce	-5367
quoia	-5368
weigh	-5369
▁Eric	-5370
▁Look	-5371
▁axis	-5372
▁brut	-5373
▁died	-5374
▁duty	-5375
▁insp	-5376
▁iron	-5377
▁joke	-5378
▁loud	-5379
▁scal	-5380
▁ship	-5381
necess	-5382
tering	-5383
▁Brian	-5384
▁Colle	-5385
▁Peter	-5386
▁Small	-5387
▁aband	-5388
▁chain	-5389
▁explo	-5390
▁fired	-5391
▁fraud	-5392
▁inhab	-5393
▁likes	-5394
▁maint	-5395
▁manip	-5396
▁mount	-5397
▁regul	-5398
▁sends	-5399
▁steps	-5400
▁tenth	-5401
▁texts	-5402
▁tough	-5403
▁unple	-5404
defined	-5405
portion	-5406
▁Comput	-5407
▁Hacker	-5408
▁Street	-5409
▁adjust	-5410
▁arbitr	-5411
▁arrive	-5412
▁chosen	-5413
▁chunks	-5414
▁closed	-5415
▁counts	-5416
▁dating	-5417
▁denial	-5418
▁doomed	-5419
▁flying	-5420
▁houses	-5421
▁illust	-5422
▁images	-5423
▁intern	-5424
▁issues	-5425
▁passed	-5426
▁remain	-5427
▁sucked	-5428
▁terrif	-5429
▁ticket	-5430
alleries	-5431
▁Nothing	-5432
▁Sequoia	-5433
▁depress	-5434
▁dialect	-5435
▁divided	-5436
▁expense	-5437
▁novelty	-5438
▁obscure	-5439
▁portfol	-5440
▁recruit	-5441
▁showing	-5442
▁variant	-5443
ibilities	-5444
promising	-5445
▁academic	-5446
▁applying	-5447
▁creation	-5448
▁focusing	-5449
▁includes	-5450
▁inconven	-5451
▁infinite	-5452
▁mattered	-5453
▁messages	-5454
▁outsider	-5455
▁outweigh	-5456
▁succeeds	-5457
▁Different	-5458
▁appealing	-5459
▁connected	-5460
▁consisted	-5461
▁decreased	-5462
▁dominated	-5463
▁economies	-5464
▁encounter	-5465
▁expressed	-5466
▁forgotten	-5467
▁paperwork	-5468
▁predictor	-5469
▁presented	-5470
▁undergrad	-5471
▁universal	-5472
▁entreprene	-5473
▁executives	-5474
▁explaining	-5475
▁industries	-5476
▁interviews	-5477
▁moderately	-5478
▁protection	-5479
▁scientists	-5480
▁unexpected	-5481
▁unpleasant	-5482
▁Programmers	-5483
▁distributed	-5484
▁inexpensive	-5485
▁manufacture	-5486
▁readability	-5487
▁scholarship	-5488
▁architecture	-5489
▁expectations	-5490
▁implementing	-5491
▁disproportion	-5492
▁fragmentation	-5493
▁uncomfortable	-5494
▁responsibility	-5495
4.	-5496
aff	-5497
amb	-5498
vin	-5499
▁(2	-5500
▁En	-5501
▁Qu	-5502
▁Sp	-5503
▁Sw	-5504
abul	-5505
aiss	-5506
asty	-5507
bert	-5508
from	-5509
hand	-5510
ilty	-5511
isms	-5512
ites	-5513
list	-5514
mail	-5515
ocra	-5516
onym	-5517
quid	-5518
▁10.	-5519
▁Arg	-5520
▁Ben	-5521
▁Cop	-5522
▁Fri	-5523
▁bio	-5524
▁bir	-5525
▁bon	-5526
▁ove	-5527
▁row	-5528
▁spl	-5529
▁ted	-5530
▁url	-5531
acity	-5532
ailed	-5533
anged	-5534
odity	-5535
riate	-5536
ublic	-5537
▁2012	-5538
▁2015	-5539
▁Cons	-5540
▁Does	-5541
▁East	-5542
▁Life	-5543
▁Pres	-5544
▁RISD	-5545
▁West	-5546
▁bits	-5547
▁busy	-5548
▁cash	-5549
▁dict	-5550
▁dumb	-5551
▁feet	-5552
▁grim	-5553
▁iter	-5554
▁mall	-5555
▁mark	-5556
▁purs	-5557
▁scen	-5558
▁trip	-5559
alling	-5560
ashdot	-5561
ficial	-5562
idents	-5563
mitted	-5564
▁Among	-5565
▁Event	-5566
▁James	-5567
▁Simil	-5568
▁Times	-5569
▁Under	-5570
▁activ	-5571
▁adapt	-5572
▁basic	-5573
▁blame	-5574
▁crime	-5575
▁deter	-5576
▁draft	-5577
▁grind	-5578
▁heart	-5579
▁hoped	-5580
▁horri	-5581
▁mixed	-5582
▁newly	-5583
▁notor	-5584
▁score	-5585
▁unint	-5586
▁woman	-5587
Another	-5588
respons	-5589
▁Christ	-5590
▁Conway	-5591
▁Jackie	-5592
▁Really	-5593
▁aiming	-5594
▁commer	-5595
▁empath	-5596
▁emphas	-5597
▁formal	-5598
▁judged	-5599
▁latest	-5600
▁member	-5601
▁strang	-5602
▁tastes	-5603
▁tempor	-5604
aissance	-5605
▁Airbnbs	-5606
▁Germany	-5607
▁Getting	-5608
▁History	-5609
▁However	-5610
▁Subject	-5611
▁abandon	-5612
▁animals	-5613
▁anomaly	-5614
▁command	-5615
▁contact	-5616
▁domains	-5617
▁dynamic	-5618
▁energet	-5619
▁essence	-5620
▁exagger	-5621
▁existed	-5622
▁headers	-5623
▁imposed	-5624
▁inverse	-5625
▁involve	-5626
▁medical	-5627
▁multipl	-5628
▁nowhere	-5629
▁overlap	-5630
▁planned	-5631
▁sounded	-5632
▁wearing	-5633
▁weather	-5634
▁willful	-5635
elligence	-5636
▁Although	-5637
▁Stanford	-5638
▁achieved	-5639
▁artifact	-5640
▁blogging	-5641
▁lifetime	-5642
▁negative	-5643
▁nonsense	-5644
▁notation	-5645
▁proposed	-5646
▁protocol	-5647
▁redesign	-5648
▁services	-5649
▁smartest	-5650
▁strongly	-5651
▁substant	-5652
▁admirable	-5653
▁continued	-5654
▁decreases	-5655
▁delighted	-5656
▁desperate	-5657
▁fifteenth	-5658
▁galleries	-5659
▁increment	-5660
▁magazines	-5661
▁portfolio	-5662
▁protected	-5663
▁regularly	-5664
▁rejection	-5665
▁satisfied	-5666
▁scientist	-5667
▁unpopular	-5668
▁Eventually	-5669
▁architects	-5670
▁controlled	-5671
▁degenerate	-5672
▁disappoint	-5673
▁efficiency	-5674
▁historical	-5675
▁inherently	-5676
▁permission	-5677
▁represents	-5678
▁surrounded	-5679
▁undergradu	-5680
▁bottlenecks	-5681
▁conventions	-5682
▁demoralized	-5683
▁disciplined	-5684
▁fortunately	-5685
▁institution	-5686
▁unpromising	-5687
▁dissertation	-5688
▁distractions	-5689
▁mathematician	-5690
19	-5691
No	-5692
▁,	-5693
des	-5694
eff	-5695
iam	-5696
igg	-5697
igm	-5698
irm	-5699
met	-5700
oms	-5701
pap	-5702
▁7%	-5703
▁9.	-5704
▁Br	-5705
▁Co	-5706
▁MB	-5707
▁ce	-5708
▁nu	-5709
▁ru	-5710
aded	-5711
aged	-5712
free	-5713
lick	-5714
pert	-5715
rage	-5716
rele	-5717
resh	-5718
scri	-5719
uits	-5720
urry	-5721
vous	-5722
will	-5723
▁11.	-5724
▁Mon	-5725
▁Out	-5726
▁Res	-5727
▁Seg	-5728
▁Sur	-5729
▁Tan	-5730
▁bes	-5731
▁boy	-5732
▁fli	-5733
▁pan	-5734
▁swe	-5735
▁une	-5736
ankly	-5737
arian	-5738
craft	-5739
going	-5740
iated	-5741
idesp	-5742
inate	-5743
inese	-5744
ivial	-5745
oster	-5746
prise	-5747
produ	-5748
rooks	-5749
ucker	-5750
▁1990	-5751
▁2006	-5752
▁Area	-5753
▁Grow	-5754
▁Note	-5755
▁Read	-5756
▁ages	-5757
▁camp	-5758
▁card	-5759
▁dark	-5760
▁dise	-5761
▁doub	-5762
▁emot	-5763
▁kick	-5764
▁prud	-5765
▁rail	-5766
▁road	-5767
▁sets	-5768
▁sued	-5769
▁tied	-5770
▁warn	-5771
elling	-5772
import	-5773
luding	-5774
▁Garry	-5775
▁Inter	-5776
▁Moore	-5777
▁Power	-5778
▁adopt	-5779
▁cards	-5780
▁crash	-5781
▁dying	-5782
▁evalu	-5783
▁facts	-5784
▁fresh	-5785
▁glass	-5786
▁harsh	-5787
▁hosts	-5788
▁infer	-5789
▁intim	-5790
▁ninet	-5791
▁oppon	-5792
▁overs	-5793
▁owned	-5794
▁proud	-5795
▁relax	-5796
▁river	-5797
▁split	-5798
▁steam	-5799
▁strug	-5800
▁white	-5801
▁women	-5802
▁yours	-5803
ascript	-5804
▁Altair	-5805
▁Daniel	-5806
▁Things	-5807
▁Turing	-5808
▁Zucker	-5809
▁action	-5810
▁aggreg	-5811
▁belong	-5812
▁brains	-5813
▁claims	-5814
▁debate	-5815
▁decade	-5816
▁decent	-5817
▁doctor	-5818
▁enable	-5819
▁errors	-5820
▁guilty	-5821
▁imagin	-5822
▁innate	-5823
▁leaves	-5824
▁occurs	-5825
▁played	-5826
▁portra	-5827
▁reduce	-5828
▁regret	-5829
▁riding	-5830
▁sacrif	-5831
▁sample	-5832
▁scheme	-5833
▁shared	-5834
▁shower	-5835
▁slower	-5836
▁speech	-5837
▁square	-5838
▁status	-5839
▁volume	-5840
▁widely	-5841
▁widesp	-5842
▁yellow	-5843
commerce	-5844
▁Between	-5845
▁Chinese	-5846
▁Develop	-5847
▁Profess	-5848
▁admired	-5849
▁chances	-5850
▁copying	-5851
▁decline	-5852
▁follows	-5853
▁greatly	-5854
▁helping	-5855
▁intoler	-5856
▁nervous	-5857
▁painted	-5858
▁prosper	-5859
▁provide	-5860
▁pulling	-5861
▁scratch	-5862
▁species	-5863
▁tedious	-5864
▁tempted	-5865
▁unhappy	-5866
important	-5867
▁Slashdot	-5868
▁advising	-5869
▁converge	-5870
▁creative	-5871
▁enormous	-5872
▁exchange	-5873
▁feedback	-5874
▁followed	-5875
▁officers	-5876
▁optimize	-5877
▁outliers	-5878
▁preserve	-5879
▁publicly	-5880
▁standing	-5881
▁switched	-5882
▁unnecess	-5883
▁variable	-5884
▁McDonough	-5885
▁attacking	-5886
▁commodity	-5887
▁cultivate	-5888
▁disasters	-5889
▁ignorance	-5890
▁irrespons	-5891
▁motivated	-5892
▁nonprofit	-5893
▁preferred	-5894
▁selecting	-5895
▁stressful	-5896
▁termsheet	-5897
▁Zuckerberg	-5898
▁aggressive	-5899
▁enormously	-5900
▁everywhere	-5901
▁meaningful	-5902
▁pretending	-5903
▁recruiting	-5904
▁widespread	-5905
▁Programming	-5906
▁acknowledge	-5907
▁advertising	-5908
▁comfortable	-5909
▁conspicuous	-5910
▁empirically	-5911
▁essentially	-5912
▁implemented	-5913
▁replacement	-5914
▁represented	-5915
▁transformed	-5916
▁abstractions	-5917
▁accelerating	-5918
▁individually	-5919
▁institutions	-5920
▁philosophers	-5921
▁restrictions	-5922
▁collaboration	-5923
▁exponentially	-5924
▁extraordinary	-5925
▁irresponsible	-5926
▁microcomputer	-5927
▁administrators	-5928
):	-5929
1,	-5930
TML	-5931
adr	-5932
emy	-5933
isk	-5934
leg	-5935
obb	-5936
ram	-5937
ube	-5938
▁1,	-5939
▁29	-5940
▁60	-5941
▁AM	-5942
▁Ed	-5943
▁Mo	-5944
▁da	-5945
▁vo	-5946
aign	-5947
aled	-5948
arks	-5949
arre	-5950
beds	-5951
down	-5952
edic	-5953
iels	-5954
itor	-5955
ivol	-5956
leaf	-5957
made	-5958
nown	-5959
obby	-5960
ogon	-5961
orts	-5962
reci	-5963
room	-5964
stra	-5965
tier	-5966
utch	-5967
word	-5968
▁$15	-5969
▁Che	-5970
▁Del	-5971
▁Far	-5972
▁Gal	-5973
▁Hum	-5974
▁Kle	-5975
▁Met	-5976
▁Occ	-5977
▁Put	-5978
▁Ren	-5979
▁Spe	-5980
▁biz	-5981
▁coo	-5982
▁dup	-5983
▁hal	-5984
▁lay	-5985
▁lic	-5986
▁los	-5987
▁pil	-5988
▁syn	-5989
▁tor	-5990
apped	-5991
iable	-5992
ilies	-5993
inton	-5994
iracy	-5995
itter	-5996
itute	-5997
peare	-5998
poses	-5999
treat	-6000
▁2002	-6001
▁2003	-6002
▁2021	-6003
▁Ajax	-6004
▁Know	-6005
▁Lear	-6006
▁Lots	-6007
▁Socr	-6008
▁bust	-6009
▁dull	-6010
▁empt	-6011
▁exit	-6012
▁indu	-6013
▁mira	-6014
▁ours	-6015
▁rock	-6016
▁roll	-6017
▁symb	-6018
▁tele	-6019
▁tens	-6020
▁thin	-6021
▁unse	-6022
▁verb	-6023
▁wood	-6024
action	-6025
arrass	-6026
atalog	-6027
funded	-6028
icious	-6029
ogonal	-6030
paying	-6031
▁1995,	-6032
▁abuse	-6033
▁aston	-6034
▁broke	-6035
▁crack	-6036
▁falls	-6037
▁fancy	-6038
▁flour	-6039
▁frequ	-6040
▁fruit	-6041
▁funny	-6042
▁gains	-6043
▁hater	-6044
▁magic	-6045
▁mercy	-6046
▁nasty	-6047
▁photo	-6048
▁scary	-6049
▁stars	-6050
▁sympt	-6051
▁tasks	-6052
▁thumb	-6053
reasing	-6054
ulating	-6055
▁10,000	-6056
▁Austen	-6057
▁Shakes	-6058
▁admire	-6059
▁afflic	-6060
▁animal	-6061
▁apples	-6062
▁athlet	-6063
▁border	-6064
▁casual	-6065
▁fastid	-6066
▁garage	-6067
▁hardly	-6068
▁incent	-6069
▁insane	-6070
▁interf	-6071
▁larval	-6072
▁luxury	-6073
▁openly	-6074
▁phases	-6075
▁physic	-6076
▁purely	-6077
▁qualit	-6078
▁refuse	-6079
▁spoken	-6080
▁stages	-6081
▁surely	-6082
▁taboos	-6083
▁thirty	-6084
▁upwind	-6085
▁voters	-6086
▁walked	-6087
▁Clinton	-6088
▁appreci	-6089
▁arrival	-6090
▁arrived	-6091
▁aspects	-6092
▁bargain	-6093
▁centers	-6094
▁chasing	-6095
▁compile	-6096
▁conform	-6097
▁defense	-6098
▁disastr	-6099
▁easiest	-6100
▁encount	-6101
▁foreign	-6102
▁inhabit	-6103
▁interse	-6104
▁intimid	-6105
▁mainfra	-6106
▁newspap	-6107
▁overest	-6108
▁parties	-6109
▁printed	-6110
▁rewrite	-6111
▁satisfy	-6112
▁teaches	-6113
▁thereby	-6114
▁trading	-6115
▁worries	-6116
▁Anything	-6117
▁Socrates	-6118
▁charisma	-6119
▁concepts	-6120
▁deadline	-6121
▁embodied	-6122
▁misunder	-6123
▁occurred	-6124
▁orthodox	-6125
▁produced	-6126
▁purposes	-6127
▁regarded	-6128
▁terribly	-6129
▁treating	-6130
▁visitors	-6131
industrial	-6132
▁Europeans	-6133
▁arbitrary	-6134
▁contempor	-6135
▁correctly	-6136
▁describes	-6137
▁developer	-6138
▁diligence	-6139
▁embarrass	-6140
▁guarantee	-6141
▁imitating	-6142
▁instances	-6143
▁obsessive	-6144
▁premature	-6145
▁sensitive	-6146
▁similarly	-6147
▁stupidity	-6148
▁switching	-6149
▁Everything	-6150
▁accumulate	-6151
▁algorithms	-6152
▁committees	-6153
▁deliberate	-6154
▁directions	-6155
▁indirectly	-6156
▁motivation	-6157
▁mysterious	-6158
▁orthogonal	-6159
▁restricted	-6160
▁Renaissance	-6161
▁Shakespeare	-6162
▁charismatic	-6163
▁computation	-6164
▁distracting	-6165
▁journalists	-6166
▁publication	-6167
▁restrictive	-6168
▁uncertainty	-6169
▁billionaires	-6170
▁bureaucratic	-6171
▁discontented	-6172
▁economically	-6173
▁evolutionary	-6174
▁mathematical	-6175
14	-6176
20	-6177
8.	-6178
SP	-6179
dge	-6180
ews	-6181
hus	-6182
iot	-6183
isa	-6184
key	-6185
min	-6186
osp	-6187
ppy	-6188
que	-6189
tml	-6190
ttp	-6191
upp	-6192
wid	-6193
▁''	-6194
▁23	-6195
▁ap	-6196
▁ip	-6197
addy	-6198
amed	-6199
aron	-6200
aust	-6201
bage	-6202
bles	-6203
cast	-6204
good	-6205
hack	-6206
husi	-6207
ided	-6208
illy	-6209
irts	-6210
ords	-6211
rier	-6212
sies	-6213
tech	-6214
they	-6215
whel	-6216
▁20%	-6217
▁Cor	-6218
▁Hot	-6219
▁Its	-6220
▁Rep	-6221
▁Sum	-6222
▁___	-6223
▁ang	-6224
▁bid	-6225
▁caf	-6226
▁cit	-6227
▁clu	-6228
▁dog	-6229
▁har	-6230
▁map	-6231
▁sho	-6232
▁sof	-6233
▁voc	-6234
,000.	-6235
akers	-6236
cking	-6237
ester	-6238
ilers	-6239
isers	-6240
isons	-6241
known	-6242
ligop	-6243
money	-6244
place	-6245
start	-6246
useum	-6247
width	-6248
▁Alex	-6249
▁Brit	-6250
▁Drop	-6251
▁Gree	-6252
▁Ital	-6253
▁June	-6254
▁Marc	-6255
▁Wall	-6256
▁alum	-6257
▁army	-6258
▁craw	-6259
▁crow	-6260
▁hair	-6261
▁html	-6262
▁labs	-6263
▁loss	-6264
▁ment	-6265
▁rein	-6266
▁reli	-6267
▁scra	-6268
▁seat	-6269
▁skip	-6270
▁thor	-6271
▁vice	-6272
called	-6273
ensity	-6274
iority	-6275
ocracy	-6276
uccess	-6277
urship	-6278
usable	-6279
▁Aaron	-6280
▁China	-6281
▁Ideas	-6282
▁Plato	-6283
▁angle	-6284
▁arrog	-6285
▁chair	-6286
▁clust	-6287
▁dedic	-6288
▁drawn	-6289
▁empty	-6290
▁fract	-6291
▁gramm	-6292
▁holds	-6293
▁imply	-6294
▁moves	-6295
▁peace	-6296
▁persu	-6297
▁plays	-6298
▁polic	-6299
▁prize	-6300
▁proxy	-6301
▁resol	-6302
▁saved	-6303
▁stake	-6304
▁steep	-6305
▁teams	-6306
▁trail	-6307
▁unsol	-6308
emember	-6309
ishment	-6310
ptitude	-6311
▁Brooks	-6312
▁Either	-6313
▁Market	-6314
▁adding	-6315
▁anomal	-6316
▁assets	-6317
▁boards	-6318
▁capita	-6319
▁cooper	-6320
▁cycles	-6321
▁doubly	-6322
▁duplic	-6323
▁endure	-6324
▁events	-6325
▁forums	-6326
▁frivol	-6327
▁hidden	-6328
▁hoping	-6329
▁inspir	-6330
▁integr	-6331
▁mobile	-6332
▁murder	-6333
▁oligop	-6334
▁pieces	-6335
▁polite	-6336
▁propag	-6337
▁puzzle	-6338
▁relent	-6339
▁resort	-6340
▁saving	-6341
▁solves	-6342
▁static	-6343
▁suited	-6344
▁theirs	-6345
▁thrown	-6346
▁wasted	-6347
▁window	-6348
--------	-6349
aphysics	-6350
business	-6351
▁Dropbox	-6352
▁Related	-6353
▁Twitter	-6354
▁Without	-6355
▁airbeds	-6356
▁appears	-6357
▁assumed	-6358
▁bizarre	-6359
▁catalog	-6360
▁closing	-6361
▁doctors	-6362
▁empathy	-6363
▁enforce	-6364
▁enthusi	-6365
▁hapless	-6366
▁members	-6367
▁minimum	-6368
▁ongoing	-6369
▁painter	-6370
▁primary	-6371
▁privile	-6372
▁puzzled	-6373
▁quarter	-6374
▁reminds	-6375
▁surface	-6376
▁surpass	-6377
▁watched	-6378
pirically	-6379
▁Arguably	-6380
▁Mathemat	-6381
▁adopters	-6382
▁assemble	-6383
▁capacity	-6384
▁clueless	-6385
▁conclude	-6386
▁conflict	-6387
▁contract	-6388
▁database	-6389
▁election	-6390
▁elegance	-6391
▁families	-6392
▁harmless	-6393
▁heresies	-6394
▁identify	-6395
▁ideology	-6396
▁incompat	-6397
▁incomple	-6398
▁inspired	-6399
▁limiting	-6400
▁maltreat	-6401
▁overwhel	-6402
▁priority	-6403
▁remained	-6404
▁shocking	-6405
▁shopping	-6406
▁smallest	-6407
▁theories	-6408
▁whenever	-6409
ashionable	-6410
▁Interleaf	-6411
▁Similarly	-6412
▁abilities	-6413
▁authority	-6414
▁demanding	-6415
▁empirical	-6416
▁energetic	-6417
▁executive	-6418
▁exploring	-6419
▁instincts	-6420
▁pervasive	-6421
▁publicity	-6422
▁remaining	-6423
▁suggested	-6424
▁teenagers	-6425
▁whichever	-6426
▁wondering	-6427
▁Apparently	-6428
▁Presumably	-6429
▁approaches	-6430
▁contribute	-6431
▁depressing	-6432
▁employment	-6433
▁encouraged	-6434
▁occasional	-6435
▁production	-6436
▁profession	-6437
▁reasonably	-6438
▁restaurant	-6439
▁skepticism	-6440
▁successive	-6441
▁suggesting	-6442
▁suggestion	-6443
▁terrifying	-6444
▁traditions	-6445
▁fashionable	-6446
▁financially	-6447
▁imaginative	-6448
▁incompetent	-6449
▁negotiating	-6450
▁originality	-6451
▁superficial	-6452
▁unnecessary	-6453
▁Incidentally	-6454
▁demoralizing	-6455
▁historically	-6456
▁publications	-6457
▁introductions	-6458
▁qualification	-6459
▁administration	-6460
12	-6461
30	-6462
47	-6463
60	-6464
9,	-6465
He	-6466
da	-6467
py	-6468
▁'	-6469
BSD	-6470
Cal	-6471
For	-6472
Now	-6473
ait	-6474
bnb	-6475
ext	-6476
igs	-6477
ixt	-6478
nis	-6479
who	-6480
▁0%	-6481
▁2,	-6482
▁22	-6483
▁24	-6484
▁80	-6485
▁Ok	-6486
▁SF	-6487
▁UI	-6488
Some	-6489
ancy	-6490
comp	-6491
etic	-6492
gers	-6493
hips	-6494
ials	-6495
iger	-6496
iner	-6497
itig	-6498
lock	-6499
tens	-6500
ulty	-6501
umes	-6502
urch	-6503
wood	-6504
▁(1)	-6505
▁(2)	-6506
▁99.	-6507
▁Ave	-6508
▁Def	-6509
▁Det	-6510
▁Did	-6511
▁Gre	-6512
▁Mil	-6513
▁Off	-6514
▁Ord	-6515
▁Oth	-6516
▁Ram	-6517
▁See	-6518
▁Ten	-6519
▁bra	-6520
▁bud	-6521
▁bul	-6522
▁cow	-6523
▁cup	-6524
▁cyn	-6525
▁ecc	-6526
▁exh	-6527
▁fav	-6528
▁fle	-6529
▁gri	-6530
▁jer	-6531
▁rig	-6532
▁saf	-6533
▁sne	-6534
▁tun	-6535
▁via	-6536
acent	-6537
anned	-6538
board	-6539
dered	-6540
eline	-6541
ender	-6542
hetor	-6543
iffin	-6544
itary	-6545
night	-6546
odies	-6547
olate	-6548
orous	-6549
orrow	-6550
oting	-6551
ounce	-6552
ulner	-6553
▁Each	-6554
▁Lisa	-6555
▁Mach	-6556
▁Mike	-6557
▁Real	-6558
▁auto	-6559
▁bets	-6560
▁bicy	-6561
▁butt	-6562
▁byte	-6563
▁cast	-6564
▁clum	-6565
▁disg	-6566
▁disk	-6567
▁grab	-6568
▁grat	-6569
▁hang	-6570
▁heat	-6571
▁hosp	-6572
▁hung	-6573
▁impl	-6574
▁leap	-6575
▁neat	-6576
▁sale	-6577
▁scar	-6578
▁song	-6579
▁synd	-6580
▁weap	-6581
▁wife	-6582
Reilly	-6583
contro	-6584
ifully	-6585
illing	-6586
imated	-6587
ounced	-6588
person	-6589
romise	-6590
undane	-6591
untime	-6592
ursion	-6593
▁Andre	-6594
▁Artix	-6595
▁Build	-6596
▁Doing	-6597
▁First	-6598
▁Gener	-6599
▁Linux	-6600
▁Paris	-6601
▁Stand	-6602
▁Three	-6603
▁admir	-6604
▁advoc	-6605
▁arise	-6606
▁bills	-6607
▁birth	-6608
▁buyer	-6609
▁crude	-6610
▁debug	-6611
▁discr	-6612
▁displ	-6613
▁edges	-6614
▁exams	-6615
▁files	-6616
▁heavy	-6617
▁hedge	-6618
▁incub	-6619
▁label	-6620
▁memor	-6621
▁nomin	-6622
▁overt	-6623
▁paren	-6624
▁pilot	-6625
▁punch	-6626
▁quadr	-6627
▁remem	-6628
▁scope	-6629
▁sheer	-6630
▁sorts	-6631
▁squee	-6632
▁valid	-6633
▁views	-6634
▁voted	-6635
▁wider	-6636
century	-6637
cessors	-6638
erences	-6639
founder	-6640
ruction	-6641
▁Custom	-6642
▁France	-6643
▁Giffin	-6644
▁Notice	-6645
▁Others	-6646
▁Partic	-6647
▁Segway	-6648
▁Should	-6649
▁active	-6650
▁battle	-6651
▁beauty	-6652
▁begins	-6653
▁branch	-6654
▁breaks	-6655
▁cancer	-6656
▁caring	-6657
▁copies	-6658
▁eccent	-6659
▁elabor	-6660
▁facing	-6661
▁fourth	-6662
▁interm	-6663
▁liquid	-6664
▁lowest	-6665
▁motive	-6666
▁museum	-6667
▁pledge	-6668
▁retain	-6669
▁sevent	-6670
▁squash	-6671
▁struck	-6672
▁tables	-6673
▁tested	-6674
▁victim	-6675
izations	-6676
lessness	-6677
▁FreeBSD	-6678
▁Hacking	-6679
▁Italian	-6680
▁Venture	-6681
▁Whether	-6682
▁amazing	-6683
▁amusing	-6684
▁arrange	-6685
▁builder	-6686
▁careers	-6687
▁constit	-6688
▁convict	-6689
▁dragged	-6690
▁dropped	-6691
▁elegant	-6692
▁enjoyed	-6693
▁faculty	-6694
▁fifteen	-6695
▁imitate	-6696
▁insider	-6697
▁liberal	-6698
▁literal	-6699
▁monitor	-6700
▁nuclear	-6701
▁passive	-6702
▁phrases	-6703
▁practic	-6704
▁promise	-6705
▁seconds	-6706
▁spammer	-6707
▁variety	-6708
▁varying	-6709
indulgent	-6710
▁Language	-6711
▁Learning	-6712
▁Likewise	-6713
▁Programs	-6714
▁Whenever	-6715
▁aircraft	-6716
▁aptitude	-6717
▁assigned	-6718
▁athletes	-6719
▁category	-6720
▁compiled	-6721
▁cultures	-6722
▁explored	-6723
▁flexible	-6724
▁hopeless	-6725
▁illusion	-6726
▁improved	-6727
▁insights	-6728
▁location	-6729
▁managing	-6730
▁movement	-6731
▁novelist	-6732
▁payments	-6733
▁policies	-6734
▁portrait	-6735
▁railroad	-6736
▁randomly	-6737
▁stealing	-6738
▁supplied	-6739
▁supplier	-6740
▁underval	-6741
▁virtuous	-6742
▁visiting	-6743
entionally	-6744
especially	-6745
▁Languages	-6746
▁ambitions	-6747
▁associate	-6748
▁certainty	-6749
▁continuum	-6750
▁dismissed	-6751
▁emphasize	-6752
▁generates	-6753
▁happiness	-6754
▁improving	-6755
▁interface	-6756
▁involving	-6757
▁justified	-6758
▁launching	-6759
▁motivator	-6760
▁negotiate	-6761
▁operators	-6762
▁predicted	-6763
▁preposter	-6764
▁privilege	-6765
▁processor	-6766
▁prospects	-6767
▁protocols	-6768
▁recession	-6769
▁responses	-6770
▁wonderful	-6771
▁Javascript	-6772
▁accurately	-6773
▁approached	-6774
▁encourages	-6775
▁incomplete	-6776
▁mistakenly	-6777
▁nineteenth	-6778
▁paragraphs	-6779
▁preventing	-6780
▁protecting	-6781
▁satisfying	-6782
▁strategies	-6783
▁structures	-6784
▁translates	-6785
▁worthwhile	-6786
▁abstraction	-6787
▁approaching	-6788
▁assumptions	-6789
▁capitalists	-6790
▁discouraged	-6791
▁excessively	-6792
▁inefficient	-6793
▁inspiration	-6794
▁intelligent	-6795
▁interchange	-6796
▁spectacular	-6797
▁technically	-6798
▁alternatives	-6799
▁representing	-6800
▁respectively	-6801
▁presentations	-6802
▁spectacularly	-6803
▁unfashionable	-6804
7.	-6805
98	-6806
?)	-6807
II	-6808
Is	-6809
Ox	-6810
uy	-6811
abs	-6812
cal	-6813
eds	-6814
hes	-6815
ini	-6816
irs	-6817
may	-6818
pur	-6819
▁01	-6820
▁Ac	-6821
▁SE	-6822
▁ge	-6823
They	-6824
aint	-6825
arge	-6826
char	-6827
cond	-6828
conf	-6829
elve	-6830
etre	-6831
fall	-6832
iens	-6833
isor	-6834
keep	-6835
lett	-6836
odel	-6837
orge	-6838
orry	-6839
qual	-6840
rase	-6841
rong	-6842
rust	-6843
teen	-6844
this	-6845
unge	-6846
▁12.	-6847
▁13.	-6848
▁16.	-6849
▁500	-6850
▁Bob	-6851
▁Hew	-6852
▁Loo	-6853
▁Old	-6854
▁Rtm	-6855
▁Sem	-6856
▁Too	-6857
▁beg	-6858
▁cam	-6859
▁fat	-6860
▁fem	-6861
▁ice	-6862
▁pip	-6863
▁pow	-6864
▁rob	-6865
▁ski	-6866
▁son	-6867
▁tur	-6868
Start	-6869
accur	-6870
ackle	-6871
earch	-6872
erers	-6873
ernic	-6874
essen	-6875
gence	-6876
ifies	-6877
ondon	-6878
opart	-6879
riend	-6880
thood	-6881
unity	-6882
uting	-6883
▁$200	-6884
▁Also	-6885
▁Bush	-6886
▁Cult	-6887
▁Deal	-6888
▁Dick	-6889
▁Dist	-6890
▁Greg	-6891
▁Half	-6892
▁Jeff	-6893
▁Keep	-6894
▁Plan	-6895
▁Teen	-6896
▁Time	-6897
▁Visi	-6898
▁Wode	-6899
▁baby	-6900
▁bind	-6901
▁caps	-6902
▁coff	-6903
▁desc	-6904
▁exce	-6905
▁fasc	-6906
▁gain	-6907
▁hole	-6908
▁http	-6909
▁ipso	-6910
▁lock	-6911
▁nurt	-6912
▁prec	-6913
▁rice	-6914
▁scan	-6915
▁sees	-6916
▁serf	-6917
▁sofa	-6918
▁spin	-6919
▁ster	-6920
▁subs	-6921
▁tail	-6922
▁todo	-6923
▁unre	-6924
▁urls	-6925
▁vacc	-6926
▁vide	-6927
▁wear	-6928
approp	-6929
ension	-6930
ersion	-6931
erving	-6932
iscipl	-6933
ishing	-6934
lation	-6935
ockley	-6936
ollary	-6937
others	-6938
uation	-6939
urable	-6940
wisdom	-6941
▁1998,	-6942
▁Chris	-6943
▁Civil	-6944
▁Early	-6945
▁Frank	-6946
▁Hardy	-6947
▁Milan	-6948
▁Smith	-6949
▁South	-6950
▁Super	-6951
▁actor	-6952
▁aimed	-6953
▁analy	-6954
▁bored	-6955
▁chase	-6956
▁cheer	-6957
▁clump	-6958
▁crush	-6959
▁deriv	-6960
▁diver	-6961
▁earth	-6962
▁excit	-6963
▁exerc	-6964
▁faced	-6965
▁gross	-6966
▁hacks	-6967
▁impat	-6968
▁impul	-6969
▁inbox	-6970
▁index	-6971
▁kills	-6972
▁loved	-6973
▁messy	-6974
▁penal	-6975
▁polls	-6976
▁prose	-6977
▁reads	-6978
▁seven	-6979
▁sheep	-6980
▁staff	-6981
▁tries	-6982
▁versa	-6983
▁weigh	-6984
bershop	-6985
ception	-6986
edience	-6987
ilution	-6988
lighten	-6989
onymous	-6990
purpose	-6991
reading	-6992
uitions	-6993
written	-6994
▁Adults	-6995
▁Compet	-6996
▁George	-6997
▁London	-6998
▁Michel	-6999
▁Mostly	-7000
▁Origin	-7001
▁Series	-7002
▁airbnb	-7003
▁aliens	-7004
▁alumni	-7005
▁analog	-7006
▁astray	-7007
▁blocks	-7008
▁brings	-7009
▁corner	-7010
▁dilute	-7011
▁escape	-7012
▁exists	-7013
▁fooled	-7014
▁forbid	-7015
▁magnet	-7016
▁observ	-7017
▁offend	-7018
▁raison	-7019
▁rhetor	-7020
▁rooted	-7021
▁semant	-7022
▁smells	-7023
▁sports	-7024
▁spring	-7025
▁stocks	-7026
▁symbol	-7027
▁unable	-7028
▁undert	-7029
▁unexpl	-7030
▁vacuum	-7031
▁volunt	-7032
accurate	-7033
founders	-7034
interest	-7035
missions	-7036
orically	-7037
▁College	-7038
▁Comment	-7039
▁Finally	-7040
▁Reading	-7041
▁authors	-7042
▁besides	-7043
▁capture	-7044
▁cartoon	-7045
▁claimed	-7046
▁compass	-7047
▁creates	-7048
▁cutting	-7049
▁cynical	-7050
▁decides	-7051
▁disgust	-7052
▁dispute	-7053
▁exploit	-7054
▁fastest	-7055
▁forever	-7056
▁infring	-7057
▁mundane	-7058
▁nonspam	-7059
▁prepare	-7060
▁reached	-7061
▁runtime	-7062
▁setting	-7063
▁testing	-7064
▁threads	-7065
▁utility	-7066
▁vesting	-7067
▁wanting	-7068
▁weekend	-7069
▁whoever	-7070
▁windows	-7071
ulnerable	-7072
▁Copernic	-7073
▁Octopart	-7074
▁Painters	-7075
▁Remember	-7076
▁Shockley	-7077
▁baseball	-7078
▁bringing	-7079
▁channels	-7080
▁confused	-7081
▁consumer	-7082
▁counting	-7083
▁document	-7084
▁dominant	-7085
▁dominate	-7086
▁downside	-7087
▁horrible	-7088
▁ignoring	-7089
▁imagined	-7090
▁improves	-7091
▁informal	-7092
▁linearly	-7093
▁maintain	-7094
▁meanness	-7095
▁military	-7096
▁moderate	-7097
▁pursuing	-7098
▁respects	-7099
▁rewarded	-7100
▁searches	-7101
▁socially	-7102
▁stronger	-7103
▁struggle	-7104
▁suburbia	-7105
▁tradeoff	-7106
ifications	-7107
indulgence	-7108
ractically	-7109
▁Delicious	-7110
▁Wodehouse	-7111
▁accidents	-7112
▁bandwidth	-7113
▁calculate	-7114
▁candidate	-7115
▁classical	-7116
▁comparing	-7117
▁democracy	-7118
▁donations	-7119
▁eccentric	-7120
▁excessive	-7121
▁frivolous	-7122
▁imaginary	-7123
▁indicator	-7124
▁mainframe	-7125
▁notorious	-7126
▁passively	-7127
▁preserved	-7128
▁reference	-7129
▁rewriting	-7130
▁sharehold	-7131
▁worthless	-7132
appropriate	-7133
▁Andreessen	-7134
▁absolutely	-7135
▁candidates	-7136
▁commercial	-7137
▁compliment	-7138
▁containing	-7139
▁conviction	-7140
▁excitement	-7141
▁foundation	-7142
▁judgements	-7143
▁mainstream	-7144
▁physically	-7145
▁predefined	-7146
▁preference	-7147
▁presenting	-7148
▁previously	-7149
▁processors	-7150
▁refutation	-7151
▁supporting	-7152
▁suspicious	-7153
▁thoroughly	-7154
▁Empirically	-7155
▁Metaphysics	-7156
▁accumulated	-7157
▁collaborate	-7158
▁constraints	-7159
▁correctness	-7160
▁cultivating	-7161
▁earnestness	-7162
▁encountered	-7163
▁exclusively	-7164
▁improvement	-7165
▁inhabitants	-7166
▁innovations	-7167
▁regulations	-7168
▁spreadsheet	-7169
▁substantial	-7170
▁willfulness	-7171
▁Particularly	-7172
▁incompetence	-7173
▁intersection	-7174
▁standardized	-7175
▁exceptionally	-7176
▁manufacturing	-7177
▁possibilities	-7178
▁traditionally	-7179
▁fastidiousness	-7180
▁interchangeable	-7181
".	-7182
17	-7183
Do	-7184
EE	-7185
PU	-7186
bl	-7187
dr	-7188
fr	-7189
ih	-7190
REE	-7191
agn	-7192
giv	-7193
gol	-7194
ibr	-7195
ipe	-7196
jud	-7197
ket	-7198
kin	-7199
lim	-7200
mar	-7201
mes	-7202
ods	-7203
pth	-7204
sec	-7205
uel	-7206
ugs	-7207
vey	-7208
vig	-7209
▁$4	-7210
▁1/	-7211
▁Av	-7212
▁HP	-7213
▁PM	-7214
▁Sc	-7215
▁lu	-7216
Calc	-7217
Most	-7218
adow	-7219
aked	-7220
anta	-7221
cers	-7222
cest	-7223
cket	-7224
ddly	-7225
empl	-7226
erex	-7227
fast	-7228
grow	-7229
ieve	-7230
iser	-7231
load	-7232
olit	-7233
omas	-7234
orth	-7235
recy	-7236
retr	-7237
rout	-7238
term	-7239
uble	-7240
ules	-7241
ulum	-7242
vere	-7243
year	-7244
zing	-7245
▁14.	-7246
▁95%	-7247
▁Ada	-7248
▁Age	-7249
▁Ant	-7250
▁Bad	-7251
▁CPU	-7252
▁Car	-7253
▁Ess	-7254
▁Mer	-7255
▁Pay	-7256
▁Sim	-7257
▁Use	-7258
▁Val	-7259
▁adj	-7260
▁dub	-7261
▁flu	-7262
▁mut	-7263
▁pet	-7264
▁rev	-7265
▁tag	-7266
▁tip	-7267
Oxley	-7268
amped	-7269
angel	-7270
arted	-7271
astic	-7272
atory	-7273
aunch	-7274
banes	-7275
entic	-7276
field	-7277
hears	-7278
itors	-7279
neath	-7280
overn	-7281
owing	-7282
print	-7283
sized	-7284
smart	-7285
techn	-7286
▁$100	-7287
▁2001	-7288
▁Char	-7289
▁Corn	-7290
▁Digg	-7291
▁Have	-7292
▁High	-7293
▁Hill	-7294
▁Inex	-7295
▁Jane	-7296
▁Jews	-7297
▁Josh	-7298
▁Mere	-7299
▁Mill	-7300
▁Page	-7301
▁Phil	-7302
▁Rand	-7303
▁Rome	-7304
▁Stud	-7305
▁Trad	-7306
▁Word	-7307
▁acts	-7308
▁adds	-7309
▁bath	-7310
▁blue	-7311
▁boat	-7312
▁cram	-7313
▁cure	-7314
▁drug	-7315
▁fans	-7316
▁fell	-7317
▁font	-7318
▁hash	-7319
▁hill	-7320
▁hunt	-7321
▁incl	-7322
▁junk	-7323
▁lest	-7324
▁lift	-7325
▁lone	-7326
▁mild	-7327
▁myst	-7328
▁nose	-7329
▁poll	-7330
▁rush	-7331
▁shap	-7332
▁slip	-7333
▁stub	-7334
▁swim	-7335
▁tall	-7336
▁unth	-7337
▁vect	-7338
ackard	-7339
ademia	-7340
arents	-7341
employ	-7342
icting	-7343
ielsen	-7344
isible	-7345
istics	-7346
mmetry	-7347
siders	-7348
usions	-7349
weight	-7350
▁1960,	-7351
▁1998.	-7352
▁Daddy	-7353
▁Emmet	-7354
▁Gradu	-7355
▁Kerry	-7356
▁Large	-7357
▁Later	-7358
▁Model	-7359
▁Never	-7360
▁Reven	-7361
▁Shear	-7362
▁Trans	-7363
▁Worse	-7364
▁beach	-7365
▁bonds	-7366
▁breat	-7367
▁cafes	-7368
▁canon	-7369
▁citiz	-7370
▁click	-7371
▁climb	-7372
▁court	-7373
▁delic	-7374
▁depth	-7375
▁finds	-7376
▁flake	-7377
▁forty	-7378
▁girls	-7379
▁goals	-7380
▁intro	-7381
▁jokes	-7382
▁logic	-7383
▁loose	-7384
▁mails	-7385
▁miser	-7386
▁morph	-7387
▁overh	-7388
▁owner	-7389
▁peaks	-7390
▁prone	-7391
▁purch	-7392
▁recon	-7393
▁reput	-7394
▁rival	-7395
▁sheet	-7396
▁sleep	-7397
▁slide	-7398
▁slope	-7399
▁spoke	-7400
▁stack	-7401
▁stone	-7402
▁sucks	-7403
▁swear	-7404
abulary	-7405
uations	-7406
▁Gackle	-7407
▁Growth	-7408
▁Making	-7409
▁Morgan	-7410
▁Norvig	-7411
▁Number	-7412
▁Object	-7413
▁Patent	-7414
▁Plenty	-7415
▁Societ	-7416
▁actors	-7417
▁allows	-7418
▁attrib	-7419
▁axioms	-7420
▁bitter	-7421
▁brutal	-7422
▁chairs	-7423
▁cleare	-7424
▁coffee	-7425
▁cooked	-7426
▁crafts	-7427
▁equals	-7428
▁fanboy	-7429
▁female	-7430
▁filled	-7431
▁firing	-7432
▁golden	-7433
▁grants	-7434
▁guests	-7435
▁horror	-7436
▁irrele	-7437
▁issued	-7438
▁lately	-7439
▁letter	-7440
▁mature	-7441
▁mental	-7442
▁merits	-7443
▁missed	-7444
▁payoff	-7445
▁prepar	-7446
▁proced	-7447
▁pulled	-7448
▁refers	-7449
▁runway	-7450
▁shifts	-7451
▁signal	-7452
▁stored	-7453
▁suffer	-7454
▁thanks	-7455
▁transp	-7456
▁twelve	-7457
▁unbear	-7458
▁underm	-7459
▁unsexy	-7460
▁weapon	-7461
ervation	-7462
ficially	-7463
iconduct	-7464
reements	-7465
▁Dickens	-7466
▁General	-7467
▁Hewlett	-7468
▁Knowing	-7469
▁Nielsen	-7470
▁Randall	-7471
▁Running	-7472
▁Seattle	-7473
▁William	-7474
▁accused	-7475
▁adopted	-7476
▁apprent	-7477
▁assimil	-7478
▁assumes	-7479
▁carried	-7480
▁causing	-7481
▁contain	-7482
▁context	-7483
▁courage	-7484
▁cubicle	-7485
▁deserve	-7486
▁distant	-7487
▁dubious	-7488
▁editing	-7489
▁evolves	-7490
▁examine	-7491
▁exhaust	-7492
▁extends	-7493
▁factory	-7494
▁federal	-7495
▁fragile	-7496
▁frankly	-7497
▁gradual	-7498
▁halfway	-7499
▁illustr	-7500
▁insight	-7501
▁intense	-7502
▁killing	-7503
▁largest	-7504
▁lessons	-7505
▁methods	-7506
▁morally	-7507
▁opposed	-7508
▁overval	-7509
▁pitches	-7510
▁proport	-7511
▁prudent	-7512
▁quietly	-7513
▁remarks	-7514
▁reports	-7515
▁scenari	-7516
▁secrecy	-7517
▁subcons	-7518
▁totally	-7519
▁visited	-7520
▁wishful	-7521
▁yielded	-7522
decessors	-7523
fficiency	-7524
iscipline	-7525
ltimately	-7526
migration	-7527
reasingly	-7528
uccessful	-7529
▁Anderson	-7530
▁Interest	-7531
▁Recently	-7532
▁Sarbanes	-7533
▁Standard	-7534
▁VisiCalc	-7535
▁adjacent	-7536
▁admitted	-7537
▁apparent	-7538
▁arranged	-7539
▁checking	-7540
▁clothing	-7541
▁drinking	-7542
▁football	-7543
▁fruitful	-7544
▁insanely	-7545
▁investig	-7546
▁likewise	-7547
▁meantime	-7548
▁mountain	-7549
▁offended	-7550
▁outright	-7551
▁persuade	-7552
▁reliable	-7553
▁repeated	-7554
▁shifting	-7555
▁shortcut	-7556
▁strictly	-7557
▁talented	-7558
▁tolerate	-7559
▁wondered	-7560
▁Accademia	-7561
▁Curiosity	-7562
▁Meanwhile	-7563
▁attracted	-7564
▁blindness	-7565
▁challenge	-7566
▁collected	-7567
▁compilers	-7568
▁destroyed	-7569
▁elaborate	-7570
▁emotional	-7571
▁entertain	-7572
▁forbidden	-7573
▁frontpage	-7574
▁generator	-7575
▁graduates	-7576
▁interpret	-7577
▁intrinsic	-7578
▁liberties	-7579
▁materials	-7580
▁mechanism	-7581
▁metaphors	-7582
▁moderates	-7583
▁obsession	-7584
▁partially	-7585
▁prevented	-7586
▁processes	-7587
▁reactions	-7588
▁recipient	-7589
▁repeating	-7590
▁sacrifice	-7591
▁secondary	-7592
▁signature	-7593
▁strangely	-7594
▁suppliers	-7595
▁activation	-7596
▁ambivalent	-7597
▁associated	-7598
▁barbershop	-7599
▁beforehand	-7600
▁borderline	-7601
▁committing	-7602
▁compromise	-7603
▁consistent	-7604
▁convention	-7605
▁disastrous	-7606
▁dishonesty	-7607
▁elementary	-7608
▁enterprise	-7609
▁frightened	-7610
▁inaccurate	-7611
▁intuitions	-7612
▁irrelevant	-7613
▁monopolies	-7614
▁processing	-7615
▁resolution	-7616
▁substitute	-7617
▁supposedly	-7618
▁temptation	-7619
▁thoughtful	-7620
▁variations	-7621
▁vocabulary	-7622
▁yourselves	-7623
▁Practically	-7624
▁advertisers	-7625
▁benevolence	-7626
▁communicate	-7627
▁dangerously	-7628
▁destination	-7629
▁disappeared	-7630
▁educational	-7631
▁expectation	-7632
▁flexibility	-7633
▁meaningless	-7634
▁unimportant	-7635
▁Historically	-7636
▁Increasingly	-7637
▁Universities	-7638
▁constraining	-7639
▁contribution	-7640
▁explanations	-7641
▁incompatible	-7642
▁inexperience	-7643
▁infringement	-7644
▁relentlessly	-7645
▁successfully	-7646
▁disadvantages	-7647
▁professionals	-7648
▁contemporaries	-7649
%,	-7650
0.	-7651
42	-7652
6%	-7653
9.	-7654
Of	-7655
Oh	-7656
ev	-7657
nn	-7658
ov	-7659
uj	-7660
▁{	-7661
)))	-7662
Bay	-7663
Let	-7664
Not	-7665
Per	-7666
Tun	-7667
Who	-7668
ago	-7669
aky	-7670
bre	-7671
cap	-7672
chm	-7673
cur	-7674
hen	-7675
lam	-7676
oke	-7677
omy	-7678
ony	-7679
opt	-7680
osm	-7681
pay	-7682
pen	-7683
som	-7684
spe	-7685
tra	-7686
war	-7687
zor	-7688
▁21	-7689
▁28	-7690
▁Ev	-7691
▁LA	-7692
▁PC	-7693
▁eg	-7694
▁hy	-7695
▁je	-7696
▁py	-7697
Here	-7698
Well	-7699
ails	-7700
apor	-7701
artz	-7702
atin	-7703
aved	-7704
ccer	-7705
egie	-7706
eses	-7707
fire	-7708
gles	-7709
high	-7710
iles	-7711
inks	-7712
irty	-7713
ista	-7714
ivoc	-7715
name	-7716
olid	-7717
orid	-7718
ownt	-7719
paid	-7720
ront	-7721
▁30%	-7722
▁Afr	-7723
▁Geb	-7724
▁ISP	-7725
▁Lev	-7726
▁Los	-7727
▁Max	-7728
▁Rus	-7729
▁Win	-7730
▁adh	-7731
▁cry	-7732
▁dry	-7733
▁fab	-7734
▁fou	-7735
▁fry	-7736
▁gre	-7737
▁hip	-7738
▁hoc	-7739
▁hun	-7740
▁ped	-7741
▁poo	-7742
▁raw	-7743
▁shy	-7744
▁sil	-7745
▁vir	-7746
▁wed	-7747
After	-7748
Notes	-7749
Tunes	-7750
Where	-7751
adays	-7752
ambda	-7753
anted	-7754
aster	-7755
atter	-7756
backs	-7757
borne	-7758
child	-7759
ctive	-7760
eable	-7761
eming	-7762
ensus	-7763
ffect	-7764
gment	-7765
icago	-7766
icine	-7767
liter	-7768
llent	-7769
luded	-7770
oding	-7771
otion	-7772
overs	-7773
racle	-7774
riage	-7775
scale	-7776
stood	-7777
▁1982	-7778
▁2013	-7779
▁2014	-7780
▁Andy	-7781
▁Arch	-7782
▁Bell	-7783
▁Bott	-7784
▁Carn	-7785
▁Cour	-7786
▁Expl	-7787
▁Fair	-7788
▁Form	-7789
▁Four	-7790
▁Give	-7791
▁Holl	-7792
▁Less	-7793
▁MBAs	-7794
▁Mist	-7795
▁Need	-7796
▁None	-7797
▁Port	-7798
▁Seed	-7799
▁Sing	-7800
▁Step	-7801
▁View	-7802
▁Witt	-7803
▁adul	-7804
▁alch	-7805
▁bang	-7806
▁bite	-7807
▁bulk	-7808
▁bull	-7809
▁chat	-7810
▁dang	-7811
▁dare	-7812
▁deck	-7813
▁envy	-7814
▁fals	-7815
▁file	-7816
▁grip	-7817
▁halt	-7818
▁held	-7819
▁iPad	-7820
▁item	-7821
▁loop	-7822
▁park	-7823
▁plot	-7824
▁plug	-7825
▁ride	-7826
▁shit	-7827
▁trib	-7828
▁vert	-7829
▁wars	-7830
Though	-7831
ancing	-7832
angelo	-7833
atural	-7834
giving	-7835
houses	-7836
ivered	-7837
liness	-7838
making	-7839
nowled	-7840
ollect	-7841
redict	-7842
theses	-7843
ubscri	-7844
ulting	-7845
umping	-7846
unless	-7847
vision	-7848
▁$3000	-7849
▁2004,	-7850
▁2004.	-7851
▁2005.	-7852
▁Algol	-7853
▁Allen	-7854
▁Coast	-7855
▁Deals	-7856
▁Greek	-7857
▁Italy	-7858
▁Latin	-7859
▁Parad	-7860
▁Santa	-7861
▁Treat	-7862
▁Young	-7863
▁accom	-7864
▁align	-7865
▁amate	-7866
▁asset	-7867
▁awful	-7868
▁balls	-7869
▁below	-7870
▁blank	-7871
▁cance	-7872
▁downt	-7873
▁exert	-7874
▁freak	-7875
▁frust	-7876
▁greed	-7877
▁hobby	-7878
▁hopes	-7879
▁horiz	-7880
▁jeans	-7881
▁jerks	-7882
▁looph	-7883
▁pairs	-7884
▁parse	-7885
▁plain	-7886
▁pyram	-7887
▁radar	-7888
▁razor	-7889
▁redef	-7890
▁relat	-7891
▁repet	-7892
▁rigid	-7893
▁rooms	-7894
▁safer	-7895
▁serfs	-7896
▁shake	-7897
▁shoot	-7898
▁shown	-7899
▁sizes	-7900
▁slack	-7901
▁tight	-7902
▁usage	-7903
▁veget	-7904
▁video	-7905
actions	-7906
amiliar	-7907
because	-7908
centric	-7909
givings	-7910
hearsal	-7911
imating	-7912
itially	-7913
ography	-7914
oration	-7915
redited	-7916
related	-7917
versely	-7918
▁Africa	-7919
▁Democr	-7920
▁Emmett	-7921
▁Gebbia	-7922
▁Merely	-7923
▁Morale	-7924
▁Scient	-7925
▁Summer	-7926
▁Wisdom	-7927
▁ancest	-7928
▁attent	-7929
▁basket	-7930
▁biased	-7931
▁brands	-7932
▁burden	-7933
▁burned	-7934
▁buyers	-7935
▁church	-7936
▁clumsy	-7937
▁criter	-7938
▁deeper	-7939
▁delete	-7940
▁derive	-7941
▁differ	-7942
▁divide	-7943
▁dreams	-7944
▁emerge	-7945
▁extens	-7946
▁gaming	-7947
▁hacked	-7948
▁heroic	-7949
▁hunter	-7950
▁iTunes	-7951
▁indign	-7952
▁infect	-7953
▁kicked	-7954
▁losers	-7955
▁metric	-7956
▁modify	-7957
▁plunge	-7958
▁rebell	-7959
▁refute	-7960
▁remove	-7961
▁repeat	-7962
▁revers	-7963
▁scarce	-7964
▁shadow	-7965
▁soccer	-7966
▁sooner	-7967
▁speeds	-7968
▁string	-7969
▁submit	-7970
▁tenure	-7971
▁unsure	-7972
▁upside	-7973
▁virtue	-7974
▁waited	-7975
▁winter	-7976
atherers	-7977
genstein	-7978
position	-7979
▁Chicago	-7980
▁Cornell	-7981
▁Kleiner	-7982
▁Parents	-7983
▁Russell	-7984
▁Society	-7985
▁absence	-7986
▁affects	-7987
▁buttons	-7988
▁comfort	-7989
▁dangers	-7990
▁derives	-7991
▁devices	-7992
▁devoted	-7993
▁diluted	-7994
▁disease	-7995
▁enables	-7996
▁garbage	-7997
▁graphic	-7998
▁gratuit	-7999
▁heading	-8000
▁hitting	-8001
▁holding	-8002
▁induced	-8003
▁instant	-8004
▁invests	-8005
▁laptops	-8006
▁license	-8007
▁miracul	-8008
▁needing	-8009
▁obliged	-8010
▁observe	-8011
▁penalty	-8012
▁premium	-8013
▁proceed	-8014
▁receive	-8015
▁reverse	-8016
▁section	-8017
▁shifted	-8018
▁skating	-8019
▁subrout	-8020
▁tactics	-8021
▁trivial	-8022
▁watches	-8023
interpret	-8024
▁Carnegie	-8025
▁Computer	-8026
▁Economic	-8027
▁airborne	-8028
▁answered	-8029
▁attacked	-8030
▁backward	-8031
▁breakage	-8032
▁campaign	-8033
▁climbing	-8034
▁closures	-8035
▁communic	-8036
▁converts	-8037
▁decisive	-8038
▁donation	-8039
▁electron	-8040
▁envision	-8041
▁equation	-8042
▁exacting	-8043
▁failures	-8044
▁flourish	-8045
▁helpless	-8046
▁immunity	-8047
▁inferior	-8048
▁internet	-8049
▁manually	-8050
▁medicine	-8051
▁minority	-8052
▁moreover	-8053
▁notebook	-8054
▁obsessed	-8055
▁opposing	-8056
▁ordering	-8057
▁pictures	-8058
▁pleasing	-8059
▁profiler	-8060
▁promised	-8061
▁properly	-8062
▁quadrant	-8063
▁quantity	-8064
▁reflects	-8065
▁scenario	-8066
▁selected	-8067
▁simplest	-8068
▁stranger	-8069
▁stubborn	-8070
▁suitable	-8071
▁superior	-8072
▁switches	-8073
▁symptoms	-8074
▁tolerant	-8075
iconductor	-8076
▁According	-8077
▁Basically	-8078
▁Computers	-8079
▁Gradually	-8080
▁Knowledge	-8081
▁admitting	-8082
▁adulthood	-8083
▁authentic	-8084
▁canonical	-8085
▁cheapness	-8086
▁compelled	-8087
▁concealed	-8088
▁confusing	-8089
▁consensus	-8090
▁counterex	-8091
▁criticism	-8092
▁delivered	-8093
▁desirable	-8094
▁directors	-8095
▁disappear	-8096
▁dividends	-8097
▁documents	-8098
▁duplicate	-8099
▁excellent	-8100
▁exclusive	-8101
▁inherited	-8102
▁instantly	-8103
▁intermedi	-8104
▁malleable	-8105
▁nominally	-8106
▁opponents	-8107
▁responded	-8108
▁rewritten	-8109
▁searching	-8110
▁spreading	-8111
▁textbooks	-8112
▁unpredict	-8113
▁Conversely	-8114
▁Copernicus	-8115
▁Ultimately	-8116
▁admiration	-8117
▁appearance	-8118
▁consisting	-8119
▁corruption	-8120
▁cultivated	-8121
▁delivering	-8122
▁discourage	-8123
▁excitingly	-8124
▁expressing	-8125
▁extracting	-8126
▁graduating	-8127
▁guaranteed	-8128
▁incubators	-8129
▁mentioning	-8130
▁multiplied	-8131
▁nonprofits	-8132
▁practition	-8133
▁recognized	-8134
▁scientific	-8135
▁shockingly	-8136
▁structural	-8137
▁underneath	-8138
▁upstanding	-8139
▁vulnerable	-8140
▁weaknesses	-8141
▁Fundraising	-8142
▁achievement	-8143
▁billionaire	-8144
▁bureaucrats	-8145
▁complaining	-8146
▁contradicts	-8147
▁embarrassed	-8148
▁fascinating	-8149
▁implausible	-8150
▁incorporate	-8151
▁influential	-8152
▁intentional	-8153
▁limitations	-8154
▁negotiation	-8155
▁parentheses	-8156
▁predictions	-8157
▁recognizing	-8158
▁strangeness	-8159
▁temporarily	-8160
▁understands	-8161
▁willingness	-8162
▁Intelligence	-8163
▁descriptions	-8164
▁disappointed	-8165
▁inconvenient	-8166
▁incorporated	-8167
▁interruption	-8168
▁misinterpret	-8169
▁overestimate	-8170
▁preposterous	-8171
▁shareholders	-8172
▁transactions	-8173
▁Semiconductor	-8174
▁contradiction	-8175
▁corresponding	-8176
▁encouragement	-8177
▁neighborhoods	-8178
▁undergraduate	-8179
▁industrialized	-8180
▁proportionally	-8181
▁procrastinating	-8182
▁proportionately	-8183
'.	-8184
-5	-8185
23	-8186
99	-8187
:"	-8188
By	-8189
DL	-8190
FO	-8191
FT	-8192
HR	-8193
MU	-8194
OS	-8195
YC	-8196
ae	-8197
ii	-8198
ka	-8199
pg	-8200
tw	-8201
ua	-8202
▁:	-8203
'',	-8204
++.	-8205
DLU	-8206
See	-8207
arg	-8208
bad	-8209
bal	-8210
bra	-8211
che	-8212
cht	-8213
don	-8214
enn	-8215
eyn	-8216
iph	-8217
job	-8218
lym	-8219
mas	-8220
oad	-8221
orb	-8222
pos	-8223
pun	-8224
raw	-8225
rep	-8226
ulf	-8227
uls	-8228
uph	-8229
▁$7	-8230
▁(3	-8231
▁+=	-8232
▁--	-8233
▁2%	-8234
▁26	-8235
▁NT	-8236
▁Oh	-8237
▁Wu	-8238
▁ju	-8239
▁la	-8240
Lisp	-8241
Mail	-8242
Make	-8243
Tube	-8244
answ	-8245
anuj	-8246
augh	-8247
body	-8248
cile	-8249
clus	-8250
erox	-8251
esky	-8252
hecy	-8253
ians	-8254
ille	-8255
inal	-8256
inde	-8257
iors	-8258
itel	-8259
ixon	-8260
lebr	-8261
luck	-8262
mary	-8263
mate	-8264
norm	-8265
note	-8266
oner	-8267
rals	-8268
rete	-8269
rors	-8270
size	-8271
some	-8272
spam	-8273
sych	-8274
talk	-8275
urer	-8276
veal	-8277
with	-8278
▁15.	-8279
▁189	-8280
▁50%	-8281
▁90%	-8282
▁99%	-8283
▁Bre	-8284
▁CFO	-8285
▁CMU	-8286
▁Des	-8287
▁Gen	-8288
▁Rub	-8289
▁SHR	-8290
▁Tal	-8291
▁Tom	-8292
▁VII	-8293
▁XML	-8294
▁ble	-8295
▁bub	-8296
▁cav	-8297
▁cig	-8298
▁coe	-8299
▁dim	-8300
▁fee	-8301
▁hom	-8302
▁hon	-8303
▁lex	-8304
▁mos	-8305
▁san	-8306
▁sav	-8307
▁sun	-8308
▁tom	-8309
▁toy	-8310
▁unn	-8311
▁var	-8312
▁wit	-8313
Since	-8314
acing	-8315
angle	-8316
aning	-8317
ashes	-8318
atern	-8319
attan	-8320
avery	-8321
bered	-8322
build	-8323
cific	-8324
edily	-8325
erick	-8326
eters	-8327
first	-8328
front	-8329
icles	-8330
icter	-8331
idote	-8332
illed	-8333
incub	-8334
lines	-8335
lings	-8336
oorer	-8337
organ	-8338
orida	-8339
ossip	-8340
otech	-8341
perts	-8342
riers	-8343
umble	-8344
usive	-8345
vered	-8346
▁$300	-8347
▁2016	-8348
▁2019	-8349
▁Acqu	-8350
▁Book	-8351
▁Cent	-8352
▁Comm	-8353
▁Cont	-8354
▁Feyn	-8355
▁Find	-8356
▁Fire	-8357
▁HTML	-8358
▁Huff	-8359
▁Lind	-8360
▁Nets	-8361
▁Next	-8362
▁Odds	-8363
▁Park	-8364
▁Rule	-8365
▁Take	-8366
▁Test	-8367
▁blur	-8368
▁boom	-8369
▁boot	-8370
▁cake	-8371
▁canv	-8372
▁club	-8373
▁defe	-8374
▁dial	-8375
▁euph	-8376
▁fate	-8377
▁fish	-8378
▁gest	-8379
▁keys	-8380
▁lect	-8381
▁lobb	-8382
▁mile	-8383
▁mood	-8384
▁mort	-8385
▁nine	-8386
▁pair	-8387
▁pipe	-8388
▁puts	-8389
▁sequ	-8390
▁sett	-8391
▁shel	-8392
▁sums	-8393
▁sust	-8394
▁tank	-8395
▁taut	-8396
▁tour	-8397
▁visa	-8398
▁worm	-8399
▁yupp	-8400
amined	-8401
anujan	-8402
apital	-8403
athers	-8404
atical	-8405
backed	-8406
ceived	-8407
encies	-8408
except	-8409
hesion	-8410
iation	-8411
icited	-8412
iently	-8413
inated	-8414
intosh	-8415
invest	-8416
istent	-8417
ivable	-8418
lining	-8419
makers	-8420
nchron	-8421
people	-8422
preced	-8423
retrie	-8424
stairs	-8425
uating	-8426
uesday	-8427
urance	-8428
▁1982,	-8429
▁2005(	-8430
▁About	-8431
▁Assum	-8432
▁Avoid	-8433
▁Durer	-8434
▁Mount	-8435
▁Occas	-8436
▁Oddly	-8437
▁Organ	-8438
▁Press	-8439
▁Right	-8440
▁Roman	-8441
▁Round	-8442
▁Today	-8443
▁Wufoo	-8444
▁Xerox	-8445
▁blogs	-8446
▁blows	-8447
▁boxes	-8448
▁bread	-8449
▁bully	-8450
▁cloud	-8451
▁conqu	-8452
▁contr	-8453
▁daily	-8454
▁deleg	-8455
▁dense	-8456
▁disli	-8457
▁draws	-8458
▁eaten	-8459
▁eleph	-8460
▁embra	-8461
▁entit	-8462
▁entry	-8463
▁fears	-8464
▁frame	-8465
▁hates	-8466
▁heirs	-8467
▁holes	-8468
▁hunch	-8469
▁illeg	-8470
▁instr	-8471
▁lands	-8472
▁legis	-8473
▁loses	-8474
▁miles	-8475
▁mitig	-8476
▁motto	-8477
▁north	-8478
▁noses	-8479
▁panic	-8480
▁param	-8481
▁psych	-8482
▁rough	-8483
▁sides	-8484
▁sorry	-8485
▁straw	-8486
▁tribe	-8487
▁tweak	-8488
▁uncon	-8489
▁unequ	-8490
▁units	-8491
▁upset	-8492
▁vivid	-8493
▁voice	-8494
▁walls	-8495
▁waves	-8496
▁wiser	-8497
Because	-8498
Packard	-8499
alistic	-8500
collect	-8501
fashion	-8502
ifiable	-8503
itation	-8504
ouncing	-8505
pending	-8506
perform	-8507
perhaps	-8508
product	-8509
profess	-8510
startup	-8511
ularity	-8512
ulously	-8513
umbents	-8514
working	-8515
▁Chesky	-8516
▁Forbes	-8517
▁Galile	-8518
▁Greens	-8519
▁Launch	-8520
▁Public	-8521
▁SHRDLU	-8522
▁Saying	-8523
▁Server	-8524
▁Social	-8525
▁Swartz	-8526
▁Thomas	-8527
▁accord	-8528
▁analys	-8529
▁babies	-8530
▁banned	-8531
▁beaten	-8532
▁binary	-8533
▁blurry	-8534
▁breath	-8535
▁bypass	-8536
▁cannot	-8537
▁celebr	-8538
▁colors	-8539
▁confir	-8540
▁crappy	-8541
▁declar	-8542
▁delays	-8543
▁discon	-8544
▁exoner	-8545
▁favors	-8546
▁fights	-8547
▁freely	-8548
▁heroes	-8549
▁hospit	-8550
▁impose	-8551
▁indist	-8552
▁invari	-8553
▁killer	-8554
▁legacy	-8555
▁levels	-8556
▁liking	-8557
▁majors	-8558
▁misled	-8559
▁overre	-8560
▁persec	-8561
▁piracy	-8562
▁planes	-8563
▁poorer	-8564
▁powers	-8565
▁prefix	-8566
▁proofs	-8567
▁proved	-8568
▁proven	-8569
▁quotes	-8570
▁refine	-8571
▁rental	-8572
▁review	-8573
▁routes	-8574
▁signed	-8575
▁slides	-8576
▁starve	-8577
▁titles	-8578
▁uncann	-8579
▁unhack	-8580
▁unrest	-8581
▁varied	-8582
▁versus	-8583
▁wished	-8584
actively	-8585
dilution	-8586
ensitive	-8587
entation	-8588
ilosophy	-8589
ordinate	-8590
ortunate	-8591
software	-8592
▁$10,000	-8593
▁British	-8594
▁Company	-8595
▁Feynman	-8596
▁Florida	-8597
▁Hotmail	-8598
▁Huffman	-8599
▁Neither	-8600
▁Problem	-8601
▁YouTube	-8602
▁airport	-8603
▁alarmed	-8604
▁alchemy	-8605
▁annoyed	-8606
▁backtra	-8607
▁behaved	-8608
▁biotech	-8609
▁brevity	-8610
▁concise	-8611
▁confirm	-8612
▁consume	-8613
▁contest	-8614
▁counted	-8615
▁courses	-8616
▁dealers	-8617
▁diction	-8618
▁digital	-8619
▁experim	-8620
▁fallacy	-8621
▁falling	-8622
▁fiction	-8623
▁forcing	-8624
▁foresee	-8625
▁formula	-8626
▁fractal	-8627
▁generic	-8628
▁gravity	-8629
▁guesses	-8630
▁immense	-8631
▁inherit	-8632
▁justify	-8633
▁lexical	-8634
▁magnify	-8635
▁mothers	-8636
▁nurture	-8637
▁outsour	-8638
▁prescri	-8639
▁pyramid	-8640
▁recover	-8641
▁reduced	-8642
▁sailing	-8643
▁seeking	-8644
▁selfish	-8645
▁staying	-8646
▁sterile	-8647
▁streets	-8648
▁studies	-8649
▁studios	-8650
▁summary	-8651
▁theorem	-8652
▁tickets	-8653
▁unclear	-8654
▁unknown	-8655
▁witness	-8656
fashioned	-8657
iminating	-8658
imination	-8659
iscovered	-8660
overnment	-8661
ronically	-8662
▁National	-8663
▁Netscape	-8664
▁accounts	-8665
▁antidote	-8666
▁approxim	-8667
▁arrogant	-8668
▁assuming	-8669
▁balanced	-8670
▁bathroom	-8671
▁benefits	-8672
▁biograph	-8673
▁bloggers	-8674
▁catching	-8675
▁classics	-8676
▁cohesion	-8677
▁commonly	-8678
▁composed	-8679
▁compound	-8680
▁contempt	-8681
▁coolness	-8682
▁dialects	-8683
▁educated	-8684
▁employed	-8685
▁evaluate	-8686
▁evolving	-8687
▁founding	-8688
▁guessing	-8689
▁happiest	-8690
▁inclined	-8691
▁involves	-8692
▁labelled	-8693
▁literary	-8694
▁mentions	-8695
▁mitigate	-8696
▁motivate	-8697
▁observed	-8698
▁operator	-8699
▁overconf	-8700
▁overhead	-8701
▁pleasant	-8702
▁prophecy	-8703
▁protects	-8704
▁register	-8705
▁reminded	-8706
▁reporter	-8707
▁retailer	-8708
▁returned	-8709
▁salesmen	-8710
▁sounding	-8711
▁stricter	-8712
▁survival	-8713
▁survived	-8714
▁teenager	-8715
▁theology	-8716
▁tomorrow	-8717
▁transfer	-8718
▁trolling	-8719
▁urgently	-8720
▁vacation	-8721
▁weighted	-8722
discipline	-8723
▁Corollary	-8724
▁Customers	-8725
▁Frederick	-8726
▁Initially	-8727
▁Macintosh	-8728
▁Ramanujan	-8729
▁abandoned	-8730
▁accepting	-8731
▁acknowled	-8732
▁afflicted	-8733
▁aggregate	-8734
▁ancestors	-8735
▁anomalies	-8736
▁automatic	-8737
▁byproduct	-8738
▁computing	-8739
▁considers	-8740
▁construct	-8741
▁contained	-8742
▁continues	-8743
▁dedicated	-8744
▁delicious	-8745
▁dutifully	-8746
▁elections	-8747
▁essential	-8748
▁execution	-8749
▁formality	-8750
▁graduated	-8751
▁household	-8752
▁illusions	-8753
▁incentive	-8754
▁installed	-8755
▁invention	-8756
▁invisible	-8757
▁mechanics	-8758
▁partition	-8759
▁physicist	-8760
▁practiced	-8761
▁rapacious	-8762
▁recursion	-8763
▁referrals	-8764
▁releasing	-8765
▁returning	-8766
▁rewarding	-8767
▁seniority	-8768
▁stretches	-8769
▁supported	-8770
▁temporary	-8771
▁unnatural	-8772
▁unrelated	-8773
▁unusually	-8774
▁uppercase	-8775
inguishable	-8776
▁Professors	-8777
▁accidental	-8778
▁appreciate	-8779
▁calculated	-8780
▁challenges	-8781
▁collecting	-8782
▁derivative	-8783
▁exaggerate	-8784
▁exceptions	-8785
▁graduation	-8786
▁hopelessly	-8787
▁imitations	-8788
▁impossibly	-8789
▁informally	-8790
▁interfaces	-8791
▁manipulate	-8792
▁mechanical	-8793
▁misgivings	-8794
▁newspapers	-8795
▁optimizing	-8796
▁outperform	-8797
▁photograph	-8798
▁punishment	-8799
▁relativity	-8800
▁remembered	-8801
▁responding	-8802
▁revolution	-8803
▁synonymous	-8804
▁unexamined	-8805
▁unfamiliar	-8806
professional	-8807
▁calculating	-8808
▁comparisons	-8809
▁consultants	-8810
▁convenience	-8811
▁exploration	-8812
▁interactive	-8813
▁introducing	-8814
▁lightweight	-8815
▁mathematics	-8816
▁motivations	-8817
▁oligopolies	-8818
▁overlooking	-8819
▁persistence	-8820
▁predictable	-8821
▁submissions	-8822
▁undervalued	-8823
▁unfortunate	-8824
▁unsolicited	-8825
▁Michelangelo	-8826
▁Occasionally	-8827
▁Wittgenstein	-8828
▁difficulties	-8829
▁manufacturer	-8830
▁predecessors	-8831
▁independently	-8832
▁practitioners	-8833
▁qualitatively	-8834
▁superficially	-8835
▁unpredictable	-8836
▁characteristic	-8837
▁counterexample	-8838
▁representation	-8839
▁underestimated	-8840
▁undergraduates	-8841
▁correspondingly	-8842
▁extraordinarily	-8843
▁professionalism	-8844
▁resourcefulness	-8845
")	-8846
(1	-8847
-2	-8848
10	-8849
4,	-8850
45	-8851
73	-8852
:2	-8853
AA	-8854
At	-8855
IP	-8856
My	-8857
PL	-8858
Ps	-8859
Sh	-8860
TO	-8861
VC	-8862
ai	-8863
fl	-8864
uz	-8865
▁}	-8866
!!!	-8867
++,	-8868
---	-8869
-19	-8870
00.	-8871
:00	-8872
All	-8873
asy	-8874
ata	-8875
bar	-8876
bel	-8877
cil	-8878
cio	-8879
cip	-8880
eah	-8881
era	-8882
erb	-8883
err	-8884
ett	-8885
fox	-8886
ico	-8887
imp	-8888
ipt	-8889
isy	-8890
ker	-8891
lon	-8892
oof	-8893
oqu	-8894
ora	-8895
pal	-8896
sch	-8897
uge	-8898
▁("	-8899
▁27	-8900
▁5,	-8901
▁98	-8902
▁GP	-8903
▁Go	-8904
▁HR	-8905
▁LL	-8906
▁NB	-8907
▁Sk	-8908
▁au	-8909
▁ec	-8910
▁om	-8911
____	-8912
adoo	-8913
band	-8914
dist	-8915
eton	-8916
etry	-8917
fied	-8918
heim	-8919
hens	-8920
illa	-8921
ills	-8922
iods	-8923
iply	-8924
long	-8925
mans	-8926
mbly	-8927
nedy	-8928
oded	-8929
ogue	-8930
olen	-8931
oost	-8932
orse	-8933
otic	-8934
otus	-8935
ousy	-8936
outs	-8937
pace	-8938
path	-8939
phic	-8940
plus	-8941
roll	-8942
rows	-8943
sust	-8944
udal	-8945
umer	-8946
umpt	-8947
umpy	-8948
uplo	-8949
ussy	-8950
vice	-8951
your	-8952
▁$1.	-8953
▁10,	-8954
▁18.	-8955
▁187	-8956
▁193	-8957
▁20.	-8958
▁40%	-8959
▁400	-8960
▁Aut	-8961
▁Boy	-8962
▁Cli	-8963
▁Cra	-8964
▁DOS	-8965
▁Err	-8966
▁Has	-8967
▁Hor	-8968
▁Jon	-8969
▁MBA	-8970
▁Mat	-8971
▁NFT	-8972
▁Rob	-8973
▁SFP	-8974
▁Squ	-8975
▁Str	-8976
▁Sub	-8977
▁arm	-8978
▁asy	-8979
▁ben	-8980
▁bol	-8981
▁cha	-8982
▁gro	-8983
▁mir	-8984
▁obt	-8985
▁pal	-8986
▁pir	-8987
▁quo	-8988
▁sea	-8989
▁sou	-8990
▁spr	-8991
▁sty	-8992
▁tap	-8993
▁tea	-8994
▁tem	-8995
▁upd	-8996
▁ups	-8997
▁vig	-8998
These	-8999
acerb	-9000
after	-9001
antel	-9002
arity	-9003
ascal	-9004
athan	-9005
atism	-9006
atist	-9007
click	-9008
ening	-9009
erned	-9010
erves	-9011
hrase	-9012
ickle	-9013
iding	-9014
immed	-9015
inger	-9016
ishly	-9017
ithic	-9018
iture	-9019
lucky	-9020
oited	-9021
ornik	-9022
osion	-9023
osure	-9024
ppery	-9025
ribes	-9026
riven	-9027
roach	-9028
thern	-9029
ywood	-9030
▁2000	-9031
▁2022	-9032
▁Buff	-9033
▁Filo	-9034
▁Kore	-9035
▁Labs	-9036
▁Libr	-9037
▁List	-9038
▁Main	-9039
▁Manh	-9040
▁Mult	-9041
▁Norm	-9042
▁Olym	-9043
▁Phot	-9044
▁Poss	-9045
▁RTML	-9046
▁Risk	-9047
▁Ruby	-9048
▁Sand	-9049
▁Tell	-9050
▁Watt	-9051
▁Writ	-9052
▁aims	-9053
▁aver	-9054
▁batt	-9055
▁bore	-9056
▁brag	-9057
▁buys	-9058
▁cell	-9059
▁cens	-9060
▁chem	-9061
▁clut	-9062
▁cosm	-9063
▁craz	-9064
▁cute	-9065
▁deny	-9066
▁dood	-9067
▁fees	-9068
▁fuck	-9069
▁gate	-9070
▁gent	-9071
▁hide	-9072
▁king	-9073
▁laid	-9074
▁lied	-9075
▁meta	-9076
▁pars	-9077
▁rude	-9078
▁ruth	-9079
▁salt	-9080
▁sixt	-9081
▁slop	-9082
▁stir	-9083
▁tort	-9084
▁triv	-9085
▁unhe	-9086
▁vast	-9087
▁warp	-9088
People	-9089
agging	-9090
ailing	-9091
amming	-9092
arters	-9093
atchet	-9094
braith	-9095
elance	-9096
engine	-9097
iating	-9098
iguous	-9099
ilbert	-9100
indeed	-9101
integr	-9102
intell	-9103
isions	-9104
istine	-9105
keness	-9106
leness	-9107
mented	-9108
ontane	-9109
ousing	-9110
partly	-9111
pgfrom	-9112
plevel	-9113
ricted	-9114
rivial	-9115
udging	-9116
▁$1000	-9117
▁2003.	-9118
▁2006(	-9119
▁2006,	-9120
▁Class	-9121
▁Dutch	-9122
▁Elect	-9123
▁False	-9124
▁Focus	-9125
▁Hence	-9126
▁India	-9127
▁Jerry	-9128
▁Kevin	-9129
▁Labor	-9130
▁Lisps	-9131
▁Mitch	-9132
▁Moder	-9133
▁Occam	-9134
▁Union	-9135
▁Watch	-9136
▁Works	-9137
▁Write	-9138
▁angry	-9139
▁armed	-9140
▁banks	-9141
▁beget	-9142
▁begun	-9143
▁benef	-9144
▁boost	-9145
▁consp	-9146
▁cruel	-9147
▁demon	-9148
▁diagn	-9149
▁dimin	-9150
▁disob	-9151
▁doors	-9152
▁downs	-9153
▁dread	-9154
▁drops	-9155
▁drove	-9156
▁emper	-9157
▁engra	-9158
▁floor	-9159
▁fluff	-9160
▁fluid	-9161
▁gears	-9162
▁hires	-9163
▁hosed	-9164
▁idiot	-9165
▁imper	-9166
▁integ	-9167
▁juicy	-9168
▁kings	-9169
▁lousy	-9170
▁lured	-9171
▁metal	-9172
▁noisy	-9173
▁obser	-9174
▁pause	-9175
▁pools	-9176
▁postp	-9177
▁posts	-9178
▁prime	-9179
▁radio	-9180
▁ranks	-9181
▁rarer	-9182
▁ruled	-9183
▁scene	-9184
▁shall	-9185
▁sight	-9186
▁sinks	-9187
▁sixth	-9188
▁slave	-9189
▁south	-9190
▁spons	-9191
▁steel	-9192
▁strip	-9193
▁suing	-9194
▁thick	-9195
▁trial	-9196
▁tuned	-9197
▁uncle	-9198
▁winds	-9199
agement	-9200
artment	-9201
bitious	-9202
ceptive	-9203
clusive	-9204
concept	-9205
endants	-9206
growing	-9207
inators	-9208
inkable	-9209
itating	-9210
keepers	-9211
manship	-9212
ogether	-9213
olithic	-9214
project	-9215
redfrom	-9216
riculum	-9217
seeming	-9218
▁Andrew	-9219
▁Bottom	-9220
▁Calder	-9221
▁Change	-9222
▁Hornik	-9223
▁Joshua	-9224
▁Justin	-9225
▁Office	-9226
▁Oracle	-9227
▁Pascal	-9228
▁Scheme	-9229
▁Square	-9230
▁absorb	-9231
▁abuses	-9232
▁agrees	-9233
▁approp	-9234
▁attend	-9235
▁bolder	-9236
▁breeds	-9237
▁budget	-9238
▁cheese	-9239
▁cigare	-9240
▁critic	-9241
▁devote	-9242
▁dismay	-9243
▁dispar	-9244
▁dumber	-9245
▁embody	-9246
▁euphem	-9247
▁exclam	-9248
▁exempl	-9249
▁fellow	-9250
▁feudal	-9251
▁fickle	-9252
▁formed	-9253
▁gossip	-9254
▁handed	-9255
▁headed	-9256
▁immune	-9257
▁invite	-9258
▁island	-9259
▁jumped	-9260
▁layers	-9261
▁linear	-9262
▁loaded	-9263
▁misjud	-9264
▁nearby	-9265
▁occupy	-9266
▁oldest	-9267
▁pander	-9268
▁passes	-9269
▁patern	-9270
▁pencil	-9271
▁photos	-9272
▁posted	-9273
▁prompt	-9274
▁proves	-9275
▁quoted	-9276
▁reform	-9277
▁resemb	-9278
▁scenes	-9279
▁sensed	-9280
▁shield	-9281
▁shirts	-9282
▁sneaky	-9283
▁stated	-9284
▁stolen	-9285
▁teleph	-9286
▁tricky	-9287
▁unansw	-9288
▁urgent	-9289
▁vested	-9290
▁viable	-9291
▁voices	-9292
▁waiter	-9293
▁wander	-9294
▁weekly	-9295
▁whitel	-9296
Startups	-9297
andering	-9298
computer	-9299
ensively	-9300
inations	-9301
orporate	-9302
probably	-9303
rational	-9304
rupulous	-9305
ternally	-9306
umptuous	-9307
▁Brevity	-9308
▁Counter	-9309
▁Friends	-9310
▁Galileo	-9311
▁Johnson	-9312
▁Kennedy	-9313
▁Looking	-9314
▁Measure	-9315
▁Olympic	-9316
▁Project	-9317
▁Stephen	-9318
▁Version	-9319
▁accompl	-9320
▁accumul	-9321
▁advisor	-9322
▁auction	-9323
▁bicycle	-9324
▁bothers	-9325
▁breadth	-9326
▁briefly	-9327
▁ceiling	-9328
▁charged	-9329
▁compuls	-9330
▁confisc	-9331
▁critics	-9332
▁damning	-9333
▁defines	-9334
▁demands	-9335
▁density	-9336
▁desires	-9337
▁despise	-9338
▁destiny	-9339
▁dinners	-9340
▁eagerly	-9341
▁edition	-9342
▁enabled	-9343
▁ensures	-9344
▁exacerb	-9345
▁execute	-9346
▁farming	-9347
▁fathers	-9348
▁grammar	-9349
▁grounds	-9350
▁grownup	-9351
▁hanging	-9352
▁healthy	-9353
▁heavily	-9354
▁herself	-9355
▁illegal	-9356
▁implied	-9357
▁impulse	-9358
▁iterate	-9359
▁joining	-9360
▁keynote	-9361
▁kicking	-9362
▁legally	-9363
▁letters	-9364
▁listing	-9365
▁locally	-9366
▁located	-9367
▁mailing	-9368
▁manages	-9369
▁margins	-9370
▁masters	-9371
▁matches	-9372
▁outward	-9373
▁passion	-9374
▁precond	-9375
▁predisp	-9376
▁promote	-9377
▁readily	-9378
▁replied	-9379
▁resumes	-9380
▁riskier	-9381
▁scripts	-9382
▁session	-9383
▁squeeze	-9384
▁stamped	-9385
▁surplus	-9386
▁tablets	-9387
▁trapped	-9388
▁violate	-9389
▁yuppies	-9390
gatherers	-9391
incubator	-9392
petuating	-9393
▁Electric	-9394
▁Mountain	-9395
▁Painting	-9396
▁Portland	-9397
▁Research	-9398
▁addicted	-9399
▁approval	-9400
▁attempts	-9401
▁branches	-9402
▁constitu	-9403
▁contains	-9404
▁controls	-9405
▁cubicles	-9406
▁deadlock	-9407
▁depended	-9408
▁deterred	-9409
▁dictator	-9410
▁director	-9411
▁diseases	-9412
▁disliked	-9413
▁engineer	-9414
▁entering	-9415
▁entitled	-9416
▁essayist	-9417
▁executed	-9418
▁expanded	-9419
▁fabulous	-9420
▁fakeness	-9421
▁favorite	-9422
▁friction	-9423
▁gestures	-9424
▁greedily	-9425
▁horribly	-9426
▁industri	-9427
▁launches	-9428
▁listings	-9429
▁magnates	-9430
▁marriage	-9431
▁meanings	-9432
▁mobility	-9433
▁narrower	-9434
▁opponent	-9435
▁organize	-9436
▁paradigm	-9437
▁pointing	-9438
▁preceded	-9439
▁premoney	-9440
▁promoted	-9441
▁proposes	-9442
▁prototyp	-9443
▁punished	-9444
▁redefine	-9445
▁reinvent	-9446
▁rephrase	-9447
▁reusable	-9448
▁salesman	-9449
▁servants	-9450
▁sideways	-9451
▁slippery	-9452
▁spontane	-9453
▁stopping	-9454
▁suburban	-9455
▁symmetry	-9456
▁theorems	-9457
▁thirteen	-9458
▁toplevel	-9459
▁uncommon	-9460
▁unpreced	-9461
▁upstream	-9462
▁vertical	-9463
▁violence	-9464
interested	-9465
retrieving	-9466
sustaining	-9467
▁Afterward	-9468
▁Curiously	-9469
▁Democrats	-9470
▁Fairchild	-9471
▁Filtering	-9472
▁Galbraith	-9473
▁Greenspun	-9474
▁Manhattan	-9475
▁Outsiders	-9476
▁Rehearsal	-9477
▁Smalltalk	-9478
▁acquiring	-9479
▁advertise	-9480
▁artifacts	-9481
▁assistant	-9482
▁biography	-9483
▁competent	-9484
▁compounds	-9485
▁concerned	-9486
▁consuming	-9487
▁departure	-9488
▁detecting	-9489
▁determine	-9490
▁discarded	-9491
▁economics	-9492
▁enlighten	-9493
▁executing	-9494
▁fortunate	-9495
▁heretical	-9496
▁indignant	-9497
▁inversely	-9498
▁loopholes	-9499
▁magically	-9500
▁massively	-9501
▁miserable	-9502
▁mountains	-9503
▁newspaper	-9504
▁officials	-9505
▁operation	-9506
▁overvalue	-9507
▁platforms	-9508
▁prisoners	-9509
▁propagate	-9510
▁reasoning	-9511
▁rebellion	-9512
▁secretive	-9513
▁shrinking	-9514
▁strangers	-9515
▁strategic	-9516
▁strongest	-9517
▁suspected	-9518
▁symbolism	-9519
▁syndicate	-9520
▁undermine	-9521
▁unequivoc	-9522
▁utilities	-9523
▁Consulting	-9524
▁Ironically	-9525
▁Understand	-9526
▁accelerate	-9527
▁accounting	-9528
▁activities	-9529
▁agreements	-9530
▁alarmingly	-9531
▁apartments	-9532
▁applicable	-9533
▁bottleneck	-9534
▁categories	-9535
▁complexity	-9536
▁conceptual	-9537
▁concluding	-9538
▁contrarian	-9539
▁correcting	-9540
▁curriculum	-9541
▁disgusting	-9542
▁dominating	-9543
▁enthusiast	-9544
▁exonerated	-9545
▁exploiting	-9546
▁frequently	-9547
▁functional	-9548
▁heuristics	-9549
▁hypotheses	-9550
▁incentives	-9551
▁incumbents	-9552
▁innovative	-9553
▁invariably	-9554
▁inventions	-9555
▁mechanisms	-9556
▁miraculous	-9557
▁officially	-9558
▁organizers	-9559
▁physicists	-9560
▁politeness	-9561
▁politician	-9562
▁positively	-9563
▁precarious	-9564
▁predicting	-9565
▁prediction	-9566
▁preferably	-9567
▁procedures	-9568
▁randomness	-9569
▁recipients	-9570
▁regularity	-9571
▁repetition	-9572
▁signalling	-9573
▁similarity	-9574
▁subjective	-9575
▁threatened	-9576
▁treehouses	-9577
▁unbearable	-9578
▁unhackable	-9579
▁vegetables	-9580
intelligence	-9581
▁Competitors	-9582
▁Experienced	-9583
▁assimilated	-9584
▁backgrounds	-9585
▁composition	-9586
▁convictions	-9587
▁desperately	-9588
▁efficiently	-9589
▁electronics	-9590
▁exclamation	-9591
▁implication	-9592
▁instruments	-9593
▁interviewed	-9594
▁intolerance	-9595
▁marketplace	-9596
▁parallelism	-9597
▁participate	-9598
▁preparation	-9599
▁proposition	-9600
▁qualitative	-9601
▁salesperson	-9602
▁speculative	-9603
▁threatening	-9604
▁unexploited	-9605
ifferentiated	-9606
▁Economically	-9607
▁entrepreneur	-9608
▁independence	-9609
▁intimidating	-9610
▁precondition	-9611
▁presentation	-9612
▁presumptuous	-9613
▁satisfaction	-9614
▁technicality	-9615
▁transmission	-9616
▁Understanding	-9617
▁conspicuously	-9618
▁entertainment	-9619
▁international	-9620
▁misunderstand	-9621
▁misunderstood	-9622
▁overconfident	-9623
▁philosophical	-9624
▁preindustrial	-9625
▁relationships	-9626
▁unprecedented	-9627
▁conversational	-9628
▁distinguishing	-9629
▁predisposition	-9630
▁specialization	-9631
▁procrastinators	-9632
"—	-9633
11	-9634
3%	-9635
4%	-9636
40	-9637
56	-9638
7%	-9639
78	-9640
90	-9641
?,	-9642
BN	-9643
Er	-9644
PR	-9645
RM	-9646
RS	-9647
TP	-9648
UA	-9649
ba	-9650
gi	-9651
mo	-9652
ny	-9653
sl	-9654
▁<	-9655
").	-9656
''.	-9657
May	-9658
Mon	-9659
VCs	-9660
acs	-9661
ado	-9662
aki	-9663
ald	-9664
ara	-9665
aum	-9666
bet	-9667
can	-9668
car	-9669
cca	-9670
coh	-9671
cor	-9672
eer	-9673
ele	-9674
esh	-9675
iro	-9676
izz	-9677
jat	-9678
lds	-9679
lle	-9680
lyn	-9681
mag	-9682
new	-9683
obe	-9684
omp	-9685
osy	-9686
rap	-9687
rec	-9688
run	-9689
sen	-9690
uer	-9691
uns	-9692
urd	-9693
xic	-9694
zac	-9695
zed	-9696
zen	-9697
▁"-	-9698
▁$6	-9699
▁($	-9700
▁(/	-9701
▁05	-9702
▁32	-9703
▁36	-9704
▁5-	-9705
▁52	-9706
▁AS	-9707
▁Ap	-9708
▁Gl	-9709
▁Gr	-9710
▁Gu	-9711
▁Hy	-9712
▁Mr	-9713
▁Ry	-9714
▁ow	-9715
▁ti	-9716
▁ul	-9717
▁vs	-9718
▁wo	-9719
Does	-9720
Many	-9721
Part	-9722
With	-9723
agan	-9724
akis	-9725
ales	-9726
alko	-9727
anim	-9728
aque	-9729
aria	-9730
ayer	-9731
bial	-9732
bins	-9733
bors	-9734
ched	-9735
cite	-9736
edia	-9737
eger	-9738
elie	-9739
eous	-9740
fail	-9741
fell	-9742
fram	-9743
gent	-9744
iami	-9745
iate	-9746
icks	-9747
ieri	-9748
impy	-9749
jack	-9750
kins	-9751
know	-9752
lets	-9753
lier	-9754
ndry	-9755
oked	-9756
omer	-9757
oose	-9758
oser	-9759
oton	-9760
quit	-9761
raus	-9762
rawl	-9763
rays	-9764
rich	-9765
rics	-9766
roit	-9767
sers	-9768
shit	-9769
sign	-9770
tery	-9771
ubes	-9772
ulpt	-9773
uzzy	-9774
vals	-9775
viet	-9776
ympt	-9777
yncr	-9778
▁(3)	-9779
▁101	-9780
▁22,	-9781
▁26,	-9782
▁Add	-9783
▁Att	-9784
▁Aud	-9785
▁Bir	-9786
▁Col	-9787
▁Dis	-9788
▁Ear	-9789
▁Fam	-9790
▁Gat	-9791
▁Hou	-9792
▁Iba	-9793
▁Ign	-9794
▁Ine	-9795
▁Inf	-9796
▁Isn	-9797
▁Kan	-9798
▁Lew	-9799
▁Mih	-9800
▁Opt	-9801
▁Roc	-9802
▁Wol	-9803
▁Xes	-9804
▁Yet	-9805
▁bom	-9806
▁bum	-9807
▁cgi	-9808
▁enh	-9809
▁fad	-9810
▁fer	-9811
▁gad	-9812
▁gut	-9813
▁ham	-9814
▁hes	-9815
▁inj	-9816
▁lap	-9817
▁lib	-9818
▁nic	-9819
▁osc	-9820
▁pit	-9821
▁sib	-9822
▁spi	-9823
▁toe	-9824
▁upt	-9825
▁upv	-9826
▁veh	-9827
▁vet	-9828
▁wel	-9829
▁wid	-9830
Every	-9831
Maybe	-9832
ading	-9833
aigne	-9834
apter	-9835
arden	-9836
cipes	-9837
cohol	-9838
cracy	-9839
creat	-9840
doing	-9841
edial	-9842
endix	-9843
eremy	-9844
ersed	-9845
estic	-9846
eterm	-9847
exist	-9848
force	-9849
glect	-9850
happy	-9851
heets	-9852
icide	-9853
iddle	-9854
igure	-9855
ilton	-9856
inery	-9857
inity	-9858
irers	-9859
learn	-9860
lical	-9861
lices	-9862
lists	-9863
ludge	-9864
olice	-9865
ommod	-9866
ossil	-9867
point	-9868
riger	-9869
rongs	-9870
ronze	-9871
sight	-9872
storm	-9873
style	-9874
taste	-9875
unday	-9876
ustry	-9877
vably	-9878
▁$500	-9879
▁100.	-9880
▁1985	-9881
▁1995	-9882
▁1996	-9883
▁1997	-9884
▁2500	-9885
▁50%.	-9886
▁Adam	-9887
▁Bold	-9888
▁Brad	-9889
▁Brin	-9890
▁City	-9891
▁Conv	-9892
▁Evan	-9893
▁FREE	-9894
▁IPOs	-9895
▁Jose	-9896
▁King	-9897
▁Lego	-9898
▁Levy	-9899
▁Live	-9900
▁Macs	-9901
▁Mont	-9902
▁Myth	-9903
▁Open	-9904
▁Pret	-9905
▁Prov	-9906
▁Rest	-9907
▁Road	-9908
▁Ross	-9909
▁Russ	-9910
▁Serv	-9911
▁Sure	-9912
▁Suri	-9913
▁appe	-9914
▁assh	-9915
▁atom	-9916
▁bond	-9917
▁cher	-9918
▁clar	-9919
▁corn	-9920
▁cube	-9921
▁dogs	-9922
▁duck	-9923
▁ease	-9924
▁east	-9925
▁flew	-9926
▁flip	-9927
▁flop	-9928
▁furn	-9929
▁glad	-9930
▁glue	-9931
▁herd	-9932
▁hobb	-9933
▁icio	-9934
▁inqu	-9935
▁legs	-9936
▁logo	-9937
▁lucr	-9938
▁moon	-9939
▁mull	-9940
▁nont	-9941
▁obey	-9942
▁obsc	-9943
▁paus	-9944
▁plag	-9945
▁plow	-9946
▁pond	-9947
▁porn	-9948
▁prox	-9949
▁redo	-9950
▁rose	-9951
▁ruin	-9952
▁schm	-9953
▁semi	-9954
▁sexy	-9955
▁shoe	-9956
▁slot	-9957
▁stim	-9958
▁tent	-9959
▁ther	-9960
▁torn	-9961
▁trap	-9962
▁tune	-9963
▁unit	-9964
▁unsc	-9965
▁unst	-9966
▁veto	-9967
▁vill	-9968
▁wart	-9969
▁whim	-9970
▁wire	-9971
▁zone	-9972
▁zoom	-9973
achers	-9974
aching	-9975
alized	-9976
andler	-9977
apping	-9978
arency	-9979
arians	-9980
bedded	-9981
chtols	-9982
cience	-9983
earing	-9984
erents	-9985
inence	-9986
itting	-9987
licity	-9988
nament	-9989
normal	-9990
ocence	-9991
ointed	-9992
orphic	-9993
owness	-9994
rating	-9995
recise	-9996
resist	-9997
search	-9998
terior	-9999
ublish	-10000
uffici	-10001
verted	-10002
willed	-10003
worked	-10004
worker	-10005
▁1975,	-10006
▁1996.	-10007
▁2003(	-10008
▁2005,	-10009
▁2007(	-10010
▁2012.	-10011
▁2020,	-10012
▁Along	-10013
▁Cisco	-10014
▁Close	-10015
▁Duplo	-10016
▁Emacs	-10017
▁GMail	-10018
▁Human	-10019
▁Kraus	-10020
▁Loopt	-10021
▁Miami	-10022
▁Princ	-10023
▁Rajat	-10024
▁Smart	-10025
▁State	-10026
▁Still	-10027
▁Surpr	-10028
▁Throw	-10029
▁Using	-10030
▁Weber	-10031
▁White	-10032
▁acted	-10033
▁airpl	-10034
▁antib	-10035
▁appet	-10036
▁auton	-10037
▁beans	-10038
▁blown	-10039
▁brown	-10040
▁brush	-10041
▁buggy	-10042
▁chees	-10043
▁chess	-10044
▁clock	-10045
▁clues	-10046
▁coach	-10047
▁codes	-10048
▁crank	-10049
▁crawl	-10050
▁cream	-10051
▁dance	-10052
▁dates	-10053
▁dials	-10054
▁dilig	-10055
▁dirty	-10056
▁doctr	-10057
▁drink	-10058
▁drunk	-10059
▁egreg	-10060
▁enemy	-10061
▁evade	-10062
▁fabul	-10063
▁faith	-10064
▁farms	-10065
▁fluct	-10066
▁fonts	-10067
▁forgo	-10068
▁fussy	-10069
▁fuzzy	-10070
▁girlf	-10071
▁grace	-10072
▁guard	-10073
▁hated	-10074
▁honor	-10075
▁hurts	-10076
▁idios	-10077
▁infix	-10078
▁ingen	-10079
▁input	-10080
▁lever	-10081
▁lions	-10082
▁loser	-10083
▁manif	-10084
▁marks	-10085
▁meets	-10086
▁melon	-10087
▁named	-10088
▁noobs	-10089
▁oddly	-10090
▁pains	-10091
▁panel	-10092
▁penny	-10093
▁peter	-10094
▁pound	-10095
▁reass	-10096
▁reson	-10097
▁ruler	-10098
▁scare	-10099
▁sells	-10100
▁shelf	-10101
▁shirt	-10102
▁shops	-10103
▁smile	-10104
▁songs	-10105
▁stall	-10106
▁stood	-10107
▁swamp	-10108
▁sword	-10109
▁teeth	-10110
▁timid	-10111
▁toxic	-10112
▁traum	-10113
▁unlim	-10114
▁veter	-10115
▁wages	-10116
▁wimpy	-10117
▁wings	-10118
Perhaps	-10119
Subject	-10120
angible	-10121
atement	-10122
balance	-10123
estions	-10124
express	-10125
gregate	-10126
hearted	-10127
idental	-10128
idering	-10129
igslist	-10130
itarian	-10131
nothing	-10132
ocratic	-10133
olation	-10134
ologies	-10135
ootstra	-10136
otation	-10137
raneous	-10138
reaming	-10139
renched	-10140
ression	-10141
sharing	-10142
throngs	-10143
usually	-10144
verbial	-10145
vincing	-10146
▁Around	-10147
▁Beware	-10148
▁Carter	-10149
▁Chance	-10150
▁Excite	-10151
▁German	-10152
▁Humans	-10153
▁Idelle	-10154
▁Jeremy	-10155
▁Little	-10156
▁Mcadoo	-10157
▁Milton	-10158
▁Modern	-10159
▁Moritz	-10160
▁Pantel	-10161
▁Parker	-10162
▁Reagan	-10163
▁Soviet	-10164
▁States	-10165
▁Steven	-10166
▁Sunday	-10167
▁Trying	-10168
▁United	-10169
▁Wouldn	-10170
▁absurd	-10171
▁amazed	-10172
▁asympt	-10173
▁backup	-10174
▁banner	-10175
▁biases	-10176
▁bodies	-10177
▁bounce	-10178
▁bubble	-10179
▁builds	-10180
▁cancel	-10181
▁canvas	-10182
▁closes	-10183
▁coding	-10184
▁connot	-10185
▁convey	-10186
▁debris	-10187
▁digits	-10188
▁doable	-10189
▁donors	-10190
▁driver	-10191
▁eleven	-10192
▁empire	-10193
▁ending	-10194
▁extrem	-10195
▁feared	-10196
▁formul	-10197
▁fossil	-10198
▁fouled	-10199
▁gadget	-10200
▁greedy	-10201
▁hotels	-10202
▁humili	-10203
▁insert	-10204
▁intact	-10205
▁intrig	-10206
▁judges	-10207
▁kludge	-10208
▁lasted	-10209
▁lesser	-10210
▁licens	-10211
▁lonely	-10212
▁mirror	-10213
▁naught	-10214
▁nobody	-10215
▁novice	-10216
▁orange	-10217
▁oscill	-10218
▁output	-10219
▁pedest	-10220
▁perman	-10221
▁poking	-10222
▁pooled	-10223
▁pounds	-10224
▁propos	-10225
▁raises	-10226
▁refuge	-10227
▁region	-10228
▁remote	-10229
▁resign	-10230
▁rights	-10231
▁rising	-10232
▁safety	-10233
▁scales	-10234
▁sculpt	-10235
▁serves	-10236
▁severe	-10237
▁shapes	-10238
▁singer	-10239
▁sister	-10240
▁slices	-10241
▁sorted	-10242
▁spaces	-10243
▁sprawl	-10244
▁states	-10245
▁sticks	-10246
▁strike	-10247
▁studio	-10248
▁styles	-10249
▁tactic	-10250
▁temper	-10251
▁terror	-10252
▁tracks	-10253
▁transc	-10254
▁tribes	-10255
▁tuning	-10256
▁uncool	-10257
▁undone	-10258
▁unjust	-10259
▁unscal	-10260
▁upward	-10261
▁vector	-10262
▁waking	-10263
▁warped	-10264
▁weaken	-10265
▁wildly	-10266
argument	-10267
hensible	-10268
ishingly	-10269
ubscribe	-10270
▁Believe	-10271
▁Britain	-10272
▁Capital	-10273
▁Charles	-10274
▁Current	-10275
▁Defense	-10276
▁Detroit	-10277
▁Finding	-10278
▁Firefox	-10279
▁Hamming	-10280
▁Hilbert	-10281
▁Houston	-10282
▁Machine	-10283
▁Markets	-10284
▁Meaning	-10285
▁Mihalko	-10286
▁Paradox	-10287
▁Putting	-10288
▁Recipes	-10289
▁Revenue	-10290
▁Service	-10291
▁Strange	-10292
▁Talking	-10293
▁Teenage	-10294
▁Writers	-10295
▁actions	-10296
▁adapted	-10297
▁advised	-10298
▁airline	-10299
▁aligned	-10300
▁angrier	-10301
▁appoint	-10302
▁athlete	-10303
▁batches	-10304
▁beneath	-10305
▁bigness	-10306
▁blocked	-10307
▁burning	-10308
▁chapter	-10309
▁charity	-10310
▁chooses	-10311
▁citizen	-10312
▁clearer	-10313
▁cluster	-10314
▁confuse	-10315
▁cooking	-10316
▁covered	-10317
▁crowded	-10318
▁damping	-10319
▁declare	-10320
▁demonst	-10321
▁designs	-10322
▁embrace	-10323
▁endless	-10324
▁engaged	-10325
▁estates	-10326
▁exclude	-10327
▁excuses	-10328
▁expects	-10329
▁exposed	-10330
▁fanboys	-10331
▁figures	-10332
▁frontal	-10333
▁gaining	-10334
▁guessed	-10335
▁hopeful	-10336
▁hosting	-10337
▁hunting	-10338
▁imposes	-10339
▁invited	-10340
▁isolate	-10341
▁lacking	-10342
▁lecture	-10343
▁mediums	-10344
▁microsc	-10345
▁minimal	-10346
▁mosquit	-10347
▁neglect	-10348
▁outline	-10349
▁package	-10350
▁packing	-10351
▁partial	-10352
▁passage	-10353
▁passing	-10354
▁payment	-10355
▁pension	-10356
▁periods	-10357
▁premise	-10358
▁proving	-10359
▁quantum	-10360
▁quoting	-10361
▁radical	-10362
▁ratchet	-10363
▁reaches	-10364
▁receipt	-10365
▁regrets	-10366
▁remorse	-10367
▁request	-10368
▁restart	-10369
▁rightly	-10370
▁scaling	-10371
▁scholar	-10372
▁secrets	-10373
▁signals	-10374
▁sixteen	-10375
▁skaters	-10376
▁slowing	-10377
▁smiling	-10378
▁soluble	-10379
▁staring	-10380
▁starved	-10381
▁station	-10382
▁sustain	-10383
▁sympath	-10384
▁symptom	-10385
▁torture	-10386
▁tougher	-10387
▁trusted	-10388
▁tuesday	-10389
▁uncanny	-10390
▁uninter	-10391
▁unlucky	-10392
▁unprodu	-10393
▁vehicle	-10394
▁virtual	-10395
▁visibly	-10396
▁visitor	-10397
▁wartime	-10398
▁western	-10399
including	-10400
opularity	-10401
technical	-10402
▁Bechtols	-10403
▁Building	-10404
▁Chandler	-10405
▁Milanese	-10406
▁Millions	-10407
▁Mythical	-10408
▁Ordinary	-10409
▁Problems	-10410
▁Together	-10411
▁accommod	-10412
▁allowing	-10413
▁amateurs	-10414
▁analysis	-10415
▁artistic	-10416
▁attracts	-10417
▁automate	-10418
▁belonged	-10419
▁birthday	-10420
▁bothered	-10421
▁brutally	-10422
▁builders	-10423
▁candidly	-10424
▁carrying	-10425
▁clusters	-10426
▁colorful	-10427
▁commerce	-10428
▁concrete	-10429
▁condense	-10430
▁consolid	-10431
▁consumed	-10432
▁contacts	-10433
▁converse	-10434
▁creators	-10435
▁crossing	-10436
▁crushing	-10437
▁defended	-10438
▁deserves	-10439
▁dilution	-10440
▁downtown	-10441
▁dropping	-10442
▁electric	-10443
▁elephant	-10444
▁embedded	-10445
▁emperors	-10446
▁famously	-10447
▁fearsome	-10448
▁floating	-10449
▁granting	-10450
▁grasping	-10451
▁grownups	-10452
▁headwind	-10453
▁ignorant	-10454
▁improper	-10455
▁incoming	-10456
▁integers	-10457
▁journals	-10458
▁judgment	-10459
▁maximize	-10460
▁merchant	-10461
▁modelled	-10462
▁monsters	-10463
▁multiply	-10464
▁nowadays	-10465
▁overused	-10466
▁pitching	-10467
▁pointers	-10468
▁printing	-10469
▁produces	-10470
▁reaching	-10471
▁readable	-10472
▁realizes	-10473
▁referred	-10474
▁refriger	-10475
▁relation	-10476
▁relevant	-10477
▁reserved	-10478
▁retained	-10479
▁reversed	-10480
▁rhetoric	-10481
▁screwing	-10482
▁semantic	-10483
▁semester	-10484
▁shipping	-10485
▁simulate	-10486
▁suffered	-10487
▁synchron	-10488
▁tweaking	-10489
▁ulterior	-10490
▁uncapped	-10491
▁uniquely	-10492
▁unsolved	-10493
▁vaccines	-10494
▁variants	-10495
government	-10496
ologically	-10497
▁Acquirers	-10498
▁Ambitious	-10499
▁Architect	-10500
▁Hollywood	-10501
▁Montaigne	-10502
▁Princeton	-10503
▁Teenagers	-10504
▁adherents	-10505
▁anomalous	-10506
▁applicant	-10507
▁attentive	-10508
▁attribute	-10509
▁beachhead	-10510
▁breakfast	-10511
▁broadcast	-10512
▁cheesebur	-10513
▁cherished	-10514
▁collector	-10515
▁comically	-10516
▁confirmed	-10517
▁confusion	-10518
▁convicted	-10519
▁countless	-10520
▁curiously	-10521
▁databases	-10522
▁debugging	-10523
▁declining	-10524
▁dependent	-10525
▁detective	-10526
▁diffident	-10527
▁ecommerce	-10528
▁excusable	-10529
▁extracted	-10530
▁followers	-10531
▁fractally	-10532
▁freelance	-10533
▁frequency	-10534
▁frontiers	-10535
▁geography	-10536
▁hobbyists	-10537
▁idiosyncr	-10538
▁impatient	-10539
▁imperfect	-10540
▁imprecise	-10541
▁insurance	-10542
▁intensity	-10543
▁intention	-10544
▁interfere	-10545
▁inventing	-10546
▁laborious	-10547
▁lowercase	-10548
▁lucrative	-10549
▁mystified	-10550
▁notebooks	-10551
▁novelists	-10552
▁obedience	-10553
▁outsource	-10554
▁overrated	-10555
▁ownership	-10556
▁painfully	-10557
▁perceived	-10558
▁persecute	-10559
▁positions	-10560
▁prevailed	-10561
▁primarily	-10562
▁promotion	-10563
▁qualified	-10564
▁railroads	-10565
▁recording	-10566
▁replacing	-10567
▁reputable	-10568
▁requiring	-10569
▁retaining	-10570
▁stability	-10571
▁substance	-10572
▁trivially	-10573
▁typically	-10574
▁underpaid	-10575
▁unlimited	-10576
▁violently	-10577
▁Craigslist	-10578
▁Department	-10579
▁Graduation	-10580
▁Ordinarily	-10581
▁Philosophy	-10582
▁accredited	-10583
▁articulate	-10584
▁assistants	-10585
▁astonished	-10586
▁basketball	-10587
▁blacklists	-10588
▁brokenness	-10589
▁collectors	-10590
▁commanding	-10591
▁compounded	-10592
▁compressed	-10593
▁conformism	-10594
▁conspiracy	-10595
▁correlated	-10596
▁dedication	-10597
▁destroying	-10598
▁determines	-10599
▁diligently	-10600
▁disconnect	-10601
▁distracted	-10602
▁distribute	-10603
▁eliminated	-10604
▁entrenched	-10605
▁evaluating	-10606
▁extraneous	-10607
▁fabulously	-10608
▁girlfriend	-10609
▁guarantees	-10610
▁impatience	-10611
▁indication	-10612
▁intentions	-10613
▁ironically	-10614
▁irrational	-10615
▁journalism	-10616
▁measurable	-10617
▁negotiated	-10618
▁nontrivial	-10619
▁occupation	-10620
▁overpaying	-10621
▁overworked	-10622
▁proverbial	-10623
▁relatively	-10624
▁rhetorical	-10625
▁sacrifices	-10626
▁schoolwork	-10627
▁separately	-10628
▁translated	-10629
▁usefulness	-10630
perpetuating	-10631
▁Considering	-10632
▁Development	-10633
▁Immigration	-10634
▁Traditional	-10635
▁accordingly	-10636
▁affectation	-10637
▁apprentices	-10638
▁appropriate	-10639
▁biographies	-10640
▁bureaucracy	-10641
▁calculation	-10642
▁coefficient	-10643
▁collections	-10644
▁controlling	-10645
▁cooperation	-10646
▁descendants	-10647
▁eliminating	-10648
▁exaggerated	-10649
▁exceptional	-10650
▁experiments	-10651
▁identifying	-10652
▁illustrates	-10653
▁incremental	-10654
▁indentation	-10655
▁inheritance	-10656
▁interrupted	-10657
▁intimidated	-10658
▁intolerable	-10659
▁notoriously	-10660
▁organically	-10661
▁outsourcing	-10662
▁protections	-10663
▁recommended	-10664
▁remembering	-10665
▁singularity	-10666
▁specialists	-10667
▁subroutines	-10668
▁suggestions	-10669
▁underfunded	-10670
▁undertaking	-10671
▁uninterrupt	-10672
▁unthinkable	-10673
▁voluntarily	-10674
repreneurship	-10675
▁Bechtolsheim	-10676
▁acceleration	-10677
▁accidentally	-10678
▁authenticity	-10679
▁conservatism	-10680
▁construction	-10681
▁establishing	-10682
▁improvements	-10683
▁inefficiency	-10684
▁interactions	-10685
▁manipulating	-10686
▁manufactured	-10687
▁negotiations	-10688
▁participants	-10689
▁preservation	-10690
▁presidential	-10691
▁proportional	-10692
▁ridiculously	-10693
▁similarities	-10694
▁transparency	-10695
▁unconvincing	-10696
▁undiscovered	-10697
▁unproductive	-10698
▁unrestricted	-10699
▁Inexperienced	-10700
▁Interestingly	-10701
▁administrator	-10702
▁continuations	-10703
▁fundamentally	-10704
▁inappropriate	-10705
▁inconvenience	-10706
▁intentionally	-10707
▁statistically	-10708
▁unequivocally	-10709
▁classification	-10710
▁differentiated	-10711
▁discrimination	-10712
▁interpretation	-10713
▁qualifications	-10714
▁subconsciously	-10715
▁transformation	-10716
▁competitiveness	-10717
//	-10718
18	-10719
22	-10720
46	-10721
66	-10722
67	-10723
85	-10724
:1	-10725
AM	-10726
DP	-10727
Or	-10728
Qu	-10729
SL	-10730
Tw	-10731
UV	-10732
Un	-10733
bu	-10734
ca	-10735
po	-10736
ti	-10737
uk	-10738
ww	-10739
xx	-10740
zi	-10741
▁#	-10742
▁]	-10743
"),	-10744
114	-10745
3%.	-10746
://	-10747
Act	-10748
Con	-10749
Did	-10750
Few	-10751
Goo	-10752
PTO	-10753
Pal	-10754
Pro	-10755
Rob	-10756
Som	-10757
TTP	-10758
UVs	-10759
Wow	-10760
Yes	-10761
aac	-10762
aco	-10763
afe	-10764
aic	-10765
asm	-10766
big	-10767
cen	-10768
dem	-10769
dog	-10770
dos	-10771
dro	-10772
edy	-10773
eel	-10774
ems	-10775
enb	-10776
hot	-10777
ido	-10778
iry	-10779
iti	-10780
kew	-10781
law	-10782
lie	-10783
lla	-10784
nel	-10785
nes	-10786
ney	-10787
nib	-10788
oor	-10789
pan	-10790
rag	-10791
rer	-10792
rey	-10793
sex	-10794
why	-10795
▁""	-10796
▁$8	-10797
▁(+	-10798
▁(=	-10799
▁),	-10800
▁07	-10801
▁1)	-10802
▁73	-10803
▁DC	-10804
▁Di	-10805
▁Gi	-10806
▁MP	-10807
▁PL	-10808
▁QA	-10809
▁Ri	-10810
▁Su	-10811
▁af	-10812
▁du	-10813
▁ep	-10814
▁fo	-10815
!!!!	-10816
Ajax	-10817
Amer	-10818
Coll	-10819
Even	-10820
FREE	-10821
Mans	-10822
Once	-10823
Wise	-10824
abin	-10825
adam	-10826
adar	-10827
aire	-10828
aise	-10829
anke	-10830
apel	-10831
aper	-10832
asar	-10833
aser	-10834
aunt	-10835
avia	-10836
azun	-10837
bery	-10838
bine	-10839
bits	-10840
cery	-10841
eeks	-10842
ened	-10843
ereg	-10844
eron	-10845
ette	-10846
exas	-10847
fold	-10848
gery	-10849
gien	-10850
grat	-10851
haus	-10852
have	-10853
hops	-10854
host	-10855
ican	-10856
icit	-10857
iece	-10858
ifth	-10859
ifty	-10860
igma	-10861
igur	-10862
ilet	-10863
imag	-10864
imal	-10865
imes	-10866
imsy	-10867
iots	-10868
ixed	-10869
izza	-10870
leep	-10871
lton	-10872
many	-10873
mare	-10874
mark	-10875
nest	-10876
neth	-10877
ntil	-10878
obic	-10879
obio	-10880
onds	-10881
oned	-10882
onzi	-10883
orce	-10884
orer	-10885
orno	-10886
osis	-10887
pers	-10888
pite	-10889
plom	-10890
poss	-10891
pres	-10892
quer	-10893
rann	-10894
reak	-10895
redu	-10896
rein	-10897
rend	-10898
risk	-10899
roid	-10900
roph	-10901
rown	-10902
ruit	-10903
seen	-10904
shot	-10905
ttes	-10906
ubby	-10907
uity	-10908
uled	-10909
undo	-10910
want	-10911
week	-10912
▁$2.	-10913
▁$80	-10914
▁11:	-10915
▁12,	-10916
▁140	-10917
▁17.	-10918
▁18,	-10919
▁19.	-10920
▁192	-10921
▁20,	-10922
▁23,	-10923
▁25,	-10924
▁280	-10925
▁300	-10926
▁5%.	-10927
▁50.	-10928
▁ASP	-10929
▁Adv	-10930
▁Aim	-10931
▁Ask	-10932
▁Bar	-10933
▁Bra	-10934
▁CRM	-10935
▁Cle	-10936
▁Cru	-10937
▁Dra	-10938
▁Eve	-10939
▁Ext	-10940
▁GDP	-10941
▁Gar	-10942
▁Gos	-10943
▁Hug	-10944
▁Inn	-10945
▁Kik	-10946
▁LPs	-10947
▁Log	-10948
▁Mas	-10949
▁Min	-10950
▁NYC	-10951
▁Obs	-10952
▁Rod	-10953
▁Rom	-10954
▁SEC	-10955
▁SET	-10956
▁Sat	-10957
▁Sec	-10958
▁Sex	-10959
▁Tra	-10960
▁Van	-10961
▁Ver	-10962
▁Yer	-10963
▁``$	-10964
▁ade	-10965
▁ana	-10966
▁bat	-10967
▁bri	-10968
▁cdr	-10969
▁cir	-10970
▁cum	-10971
▁fog	-10972
▁gle	-10973
▁glu	-10974
▁gun	-10975
▁hus	-10976
▁jam	-10977
▁jet	-10978
▁lam	-10979
▁lid	-10980
▁lop	-10981
▁mas	-10982
▁nav	-10983
▁nth	-10984
▁org	-10985
▁pix	-10986
▁reh	-10987
▁rot	-10988
▁rou	-10989
▁rud	-10990
▁sed	-10991
▁tie	-10992
▁tow	-10993
▁uni	-10994
▁wat	-10995
▁wow	-10996
,000,	-10997
Could	-10998
Month	-10999
While	-11000
_____	-11001
actly	-11002
adequ	-11003
adigm	-11004
agram	-11005
alier	-11006
andal	-11007
antic	-11008
apult	-11009
assin	-11010
atisf	-11011
cible	-11012
count	-11013
ctory	-11014
cycle	-11015
dated	-11016
endar	-11017
epend	-11018
ereal	-11019
erenn	-11020
erman	-11021
ertii	-11022
essay	-11023
ffiti	-11024
iance	-11025
icing	-11026
ictor	-11027
iform	-11028
iller	-11029
inder	-11030
inted	-11031
iquid	-11032
irtum	-11033
isive	-11034
isure	-11035
iumph	-11036
lated	-11037
leted	-11038
leton	-11039
lette	-11040
lfred	-11041
ludes	-11042
mates	-11043
media	-11044
month	-11045
ocate	-11046
ogger	-11047
oking	-11048
oning	-11049
ontal	-11050
ordon	-11051
orney	-11052
oshop	-11053
otted	-11054
plugs	-11055
proof	-11056
ramen	-11057
rayed	-11058
reput	-11059
rians	-11060
shake	-11061
ships	-11062
stage	-11063
stige	-11064
those	-11065
twent	-11066
uthor	-11067
utive	-11068
woods	-11069
▁$150	-11070
▁----	-11071
▁1/(1	-11072
▁1920	-11073
▁1930	-11074
▁1956	-11075
▁1984	-11076
▁1988	-11077
▁9999	-11078
▁Auto	-11079
▁Bank	-11080
▁Baut	-11081
▁Beck	-11082
▁CSUA	-11083
▁Cler	-11084
▁Dead	-11085
▁Down	-11086
▁Edit	-11087
▁Eucl	-11088
▁Exam	-11089
▁Fast	-11090
▁Gary	-11091
▁Gini	-11092
▁Gold	-11093
▁HTTP	-11094
▁Hale	-11095
▁Hein	-11096
▁Kate	-11097
▁Loop	-11098
▁Luck	-11099
▁Maps	-11100
▁Pick	-11101
▁Raph	-11102
▁Reid	-11103
▁Rout	-11104
▁Ryan	-11105
▁SUVs	-11106
▁Seek	-11107
▁Sloo	-11108
▁Span	-11109
▁Spit	-11110
▁Suns	-11111
▁Swed	-11112
▁Symb	-11113
▁Talk	-11114
▁Text	-11115
▁True	-11116
▁Yale	-11117
▁airy	-11118
▁axes	-11119
▁bagg	-11120
▁bait	-11121
▁barg	-11122
▁bend	-11123
▁beta	-11124
▁bone	-11125
▁bump	-11126
▁buzz	-11127
▁calm	-11128
▁carr	-11129
▁caut	-11130
▁chip	-11131
▁choc	-11132
▁clue	-11133
▁cock	-11134
▁coin	-11135
▁cozy	-11136
▁cros	-11137
▁cuts	-11138
▁dawn	-11139
▁depr	-11140
▁diam	-11141
▁diet	-11142
▁drew	-11143
▁dump	-11144
▁eBay	-11145
▁ears	-11146
▁eats	-11147
▁eggs	-11148
▁farm	-11149
▁feas	-11150
▁fits	-11151
▁fuss	-11152
▁gear	-11153
▁girl	-11154
▁glam	-11155
▁glob	-11156
▁gran	-11157
▁hook	-11158
▁hose	-11159
▁iPod	-11160
▁icon	-11161
▁incr	-11162
▁isom	-11163
▁jack	-11164
▁keen	-11165
▁leaf	-11166
▁lean	-11167
▁ligh	-11168
▁mast	-11169
▁meat	-11170
▁mini	-11171
▁nest	-11172
▁omit	-11173
▁owns	-11174
▁pens	-11175
▁pets	-11176
▁phil	-11177
▁plod	-11178
▁prod	-11179
▁pron	-11180
▁ripe	-11181
▁sage	-11182
▁sail	-11183
▁scoo	-11184
▁sere	-11185
▁sest	-11186
▁simp	-11187
▁sine	-11188
▁tags	-11189
▁taxi	-11190
▁tide	-11191
▁tips	-11192
▁toes	-11193
▁toys	-11194
▁twin	-11195
▁uned	-11196
▁urge	-11197
▁utop	-11198
▁wage	-11199
▁wand	-11200
Before	-11201
Google	-11202
acting	-11203
alects	-11204
always	-11205
apable	-11206
ardens	-11207
arlyle	-11208
ashing	-11209
azunis	-11210
cenary	-11211
ceness	-11212
curric	-11213
driven	-11214
either	-11215
erning	-11216
erring	-11217
feller	-11218
ficing	-11219
friend	-11220
ground	-11221
hacker	-11222
headed	-11223
icates	-11224
illion	-11225
inging	-11226
izable	-11227
kewarm	-11228
kyline	-11229
lesale	-11230
moving	-11231
olding	-11232
olitan	-11233
oluble	-11234
ominem	-11235
orkers	-11236
orship	-11237
osting	-11238
ournal	-11239
places	-11240
rences	-11241
rights	-11242
school	-11243
shirts	-11244
uality	-11245
uesome	-11246
ulture	-11247
ursday	-11248
wealth	-11249
▁1960.	-11250
▁1975.	-11251
▁1982.	-11252
▁2000,	-11253
▁2001,	-11254
▁2002,	-11255
▁2007.	-11256
▁Above	-11257
▁Begin	-11258
▁Bible	-11259
▁Brick	-11260
▁Canad	-11261
▁Clark	-11262
▁Cliff	-11263
▁Earth	-11264
▁Erann	-11265
▁Erdos	-11266
▁Fifty	-11267
▁Gmail	-11268
▁Going	-11269
▁House	-11270
▁Kapor	-11271
▁Linus	-11272
▁Lotus	-11273
▁Maria	-11274
▁Naive	-11275
▁Nancy	-11276
▁Nixon	-11277
▁Ponzi	-11278
▁Price	-11279
▁Qasar	-11280
▁Quite	-11281
▁Radar	-11282
▁Ramen	-11283
▁Rocke	-11284
▁Speed	-11285
▁Stuff	-11286
▁Tests	-11287
▁Texas	-11288
▁Thiel	-11289
▁USPTO	-11290
▁Until	-11291
▁Waugh	-11292
▁amiss	-11293
▁anger	-11294
▁attic	-11295
▁backb	-11296
▁birds	-11297
▁bites	-11298
▁blood	-11299
▁bluff	-11300
▁burst	-11301
▁cable	-11302
▁chaos	-11303
▁chest	-11304
▁chief	-11305
▁chron	-11306
▁crowd	-11307
▁cruft	-11308
▁crust	-11309
▁cured	-11310
▁delim	-11311
▁desks	-11312
▁donor	-11313
▁dozen	-11314
▁drast	-11315
▁eaves	-11316
▁eloqu	-11317
▁erode	-11318
▁escap	-11319
▁feeds	-11320
▁fifth	-11321
▁flock	-11322
▁geeks	-11323
▁goods	-11324
▁grain	-11325
▁grass	-11326
▁guest	-11327
▁handy	-11328
▁heret	-11329
▁horse	-11330
▁hotel	-11331
▁immov	-11332
▁indec	-11333
▁indul	-11334
▁joint	-11335
▁layer	-11336
▁leaks	-11337
▁litig	-11338
▁loans	-11339
▁mecca	-11340
▁medal	-11341
▁noble	-11342
▁paran	-11343
▁peril	-11344
▁plane	-11345
▁plant	-11346
▁porno	-11347
▁pregn	-11348
▁pride	-11349
▁proli	-11350
▁refin	-11351
▁resil	-11352
▁revol	-11353
▁rocks	-11354
▁shoes	-11355
▁shots	-11356
▁shout	-11357
▁simul	-11358
▁slate	-11359
▁slick	-11360
▁slows	-11361
▁stove	-11362
▁surge	-11363
▁sweet	-11364
▁taxed	-11365
▁terse	-11366
▁thank	-11367
▁thump	-11368
▁trash	-11369
▁trave	-11370
▁troll	-11371
▁trump	-11372
▁twist	-11373
▁typed	-11374
▁unmet	-11375
▁utter	-11376
▁votes	-11377
▁walks	-11378
▁wives	-11379
▁woven	-11380
Robbins	-11381
Whereas	-11382
address	-11383
aphrase	-11384
attered	-11385
calling	-11386
content	-11387
entious	-11388
entment	-11389
essions	-11390
experts	-11391
filling	-11392
forcing	-11393
funding	-11394
hington	-11395
ificant	-11396
iminate	-11397
imizing	-11398
inished	-11399
inister	-11400
ismatic	-11401
jection	-11402
lexible	-11403
ligible	-11404
meaning	-11405
obvious	-11406
ocating	-11407
ocative	-11408
ologist	-11409
orously	-11410
orthand	-11411
ousands	-11412
program	-11413
rically	-11414
rington	-11415
rolling	-11416
sequent	-11417
uitable	-11418
verting	-11419
▁Alexis	-11420
▁Associ	-11421
▁Baskin	-11422
▁Bureau	-11423
▁Chapel	-11424
▁Draves	-11425
▁Effect	-11426
▁Engine	-11427
▁Essays	-11428
▁Evelyn	-11429
▁Family	-11430
▁Figure	-11431
▁Friend	-11432
▁Gordon	-11433
▁Harder	-11434
▁Harper	-11435
▁Indian	-11436
▁Intell	-11437
▁Macros	-11438
▁McMans	-11439
▁Mechan	-11440
▁Meraki	-11441
▁Miller	-11442
▁Online	-11443
▁PayPal	-11444
▁Paypal	-11445
▁Philip	-11446
▁Pretty	-11447
▁Princi	-11448
▁Report	-11449
▁Search	-11450
▁Second	-11451
▁Simple	-11452
▁Sounds	-11453
▁Steele	-11454
▁Struct	-11455
▁System	-11456
▁Victor	-11457
▁Yorker	-11458
▁Younis	-11459
▁absent	-11460
▁annual	-11461
▁apiece	-11462
▁apolog	-11463
▁appall	-11464
▁archae	-11465
▁argued	-11466
▁arises	-11467
▁asleep	-11468
▁behalf	-11469
▁beings	-11470
▁benchm	-11471
▁beside	-11472
▁boiler	-11473
▁boldly	-11474
▁bolted	-11475
▁bottle	-11476
▁bribes	-11477
▁bridge	-11478
▁bright	-11479
▁browse	-11480
▁bucket	-11481
▁bullet	-11482
▁cereal	-11483
▁cheesy	-11484
▁coined	-11485
▁compel	-11486
▁daring	-11487
▁diplom	-11488
▁doubts	-11489
▁enrich	-11490
▁entail	-11491
▁expose	-11492
▁faking	-11493
▁feeble	-11494
▁fences	-11495
▁flimsy	-11496
▁flowed	-11497
▁freaks	-11498
▁funnel	-11499
▁gained	-11500
▁galley	-11501
▁garden	-11502
▁gender	-11503
▁gentle	-11504
▁graphs	-11505
▁grinds	-11506
▁grubby	-11507
▁halves	-11508
▁hockey	-11509
▁hungry	-11510
▁idiots	-11511
▁improv	-11512
▁incons	-11513
▁injury	-11514
▁insult	-11515
▁intend	-11516
▁ironic	-11517
▁joking	-11518
▁latent	-11519
▁leader	-11520
▁malice	-11521
▁manner	-11522
▁mating	-11523
▁modest	-11524
▁naming	-11525
▁nation	-11526
▁newest	-11527
▁nicest	-11528
▁nights	-11529
▁nobles	-11530
▁opened	-11531
▁perenn	-11532
▁periph	-11533
▁phones	-11534
▁planet	-11535
▁plants	-11536
▁poised	-11537
▁portal	-11538
▁prelim	-11539
▁preval	-11540
▁priori	-11541
▁propri	-11542
▁pushes	-11543
▁ratios	-11544
▁redund	-11545
▁relief	-11546
▁reread	-11547
▁retire	-11548
▁reveal	-11549
▁robust	-11550
▁roller	-11551
▁rowers	-11552
▁rulers	-11553
▁runner	-11554
▁schmoo	-11555
▁scores	-11556
▁scraps	-11557
▁season	-11558
▁secure	-11559
▁seller	-11560
▁shaped	-11561
▁sheets	-11562
▁shrink	-11563
▁slaves	-11564
▁sought	-11565
▁spikes	-11566
▁spiral	-11567
▁squirm	-11568
▁stable	-11569
▁stands	-11570
▁stimul	-11571
▁subsid	-11572
▁superm	-11573
▁testim	-11574
▁thrive	-11575
▁throws	-11576
▁toilet	-11577
▁trails	-11578
▁triple	-11579
▁turkey	-11580
▁tweaks	-11581
▁unanim	-11582
▁unchar	-11583
▁vanity	-11584
▁verbal	-11585
▁voting	-11586
▁weaker	-11587
▁worlds	-11588
Everyone	-11589
anything	-11590
building	-11591
centered	-11592
ceptible	-11593
creative	-11594
employee	-11595
fortably	-11596
fredfrom	-11597
industry	-11598
missible	-11599
ognizing	-11600
opically	-11601
paradigm	-11602
produced	-11603
ressions	-11604
ribution	-11605
▁$15,000	-11606
▁$20,000	-11607
▁$50,000	-11608
▁Already	-11609
▁Apology	-11610
▁Bradley	-11611
▁Carlyle	-11612
▁Clearly	-11613
▁Clerico	-11614
▁Combine	-11615
▁Daniels	-11616
▁Dealing	-11617
▁Depends	-11618
▁Formula	-11619
▁Googles	-11620
▁Gosling	-11621
▁Individ	-11622
▁Journal	-11623
▁Kenneth	-11624
▁Mistake	-11625
▁Multics	-11626
▁Organic	-11627
▁Roughly	-11628
▁Sistine	-11629
▁Studies	-11630
▁Wolfram	-11631
▁accords	-11632
▁alcohol	-11633
▁analyze	-11634
▁anticip	-11635
▁applets	-11636
▁attacks	-11637
▁autobio	-11638
▁baggage	-11639
▁balloon	-11640
▁banning	-11641
▁battles	-11642
▁binding	-11643
▁blunder	-11644
▁bonuses	-11645
▁broadly	-11646
▁brother	-11647
▁cheated	-11648
▁clarify	-11649
▁clashes	-11650
▁cleaned	-11651
▁cleaner	-11652
▁collaps	-11653
▁commiss	-11654
▁commits	-11655
▁congrat	-11656
▁conting	-11657
▁crawler	-11658
▁crossed	-11659
▁crushed	-11660
▁deleted	-11661
▁digging	-11662
▁discrep	-11663
▁disrupt	-11664
▁distort	-11665
▁diverge	-11666
▁divisor	-11667
▁dreaded	-11668
▁dressed	-11669
▁emerges	-11670
▁entails	-11671
▁explode	-11672
▁feeding	-11673
▁flipped	-11674
▁foolish	-11675
▁grasped	-11676
▁grocery	-11677
▁harried	-11678
▁hobbies	-11679
▁housing	-11680
▁ideally	-11681
▁inadequ	-11682
▁incomes	-11683
▁inquiry	-11684
▁integer	-11685
▁issuing	-11686
▁justice	-11687
▁laughed	-11688
▁laundry	-11689
▁leisure	-11690
▁lottery	-11691
▁lowball	-11692
▁malaise	-11693
▁messier	-11694
▁monoton	-11695
▁muscles	-11696
▁nagging	-11697
▁naughty	-11698
▁officer	-11699
▁omitted	-11700
▁ordered	-11701
▁outlier	-11702
▁outrage	-11703
▁overpay	-11704
▁overtly	-11705
▁patient	-11706
▁peasant	-11707
▁pinched	-11708
▁pitfall	-11709
▁plastic	-11710
▁popping	-11711
▁profits	-11712
▁promisc	-11713
▁provoke	-11714
▁qualify	-11715
▁reactor	-11716
▁reduces	-11717
▁refused	-11718
▁remains	-11719
▁retains	-11720
▁rockets	-11721
▁runners	-11722
▁scandal	-11723
▁scanned	-11724
▁senator	-11725
▁serving	-11726
▁shallow	-11727
▁sharper	-11728
▁shrinks	-11729
▁signing	-11730
▁skipped	-11731
▁slavery	-11732
▁smoking	-11733
▁steeper	-11734
▁subscri	-11735
▁sucking	-11736
▁swimmer	-11737
▁threats	-11738
▁tricked	-11739
▁triumph	-11740
▁unbelie	-11741
▁uniform	-11742
▁upfront	-11743
▁vaccine	-11744
▁vaguely	-11745
▁valleys	-11746
▁vectors	-11747
▁veteran	-11748
▁victory	-11749
▁viewers	-11750
▁weighed	-11751
▁weights	-11752
▁worldly	-11753
amentally	-11754
ationally	-11755
inguished	-11756
investors	-11757
irtumundo	-11758
itionally	-11759
qualified	-11760
reputable	-11761
▁Appendix	-11762
▁Assuming	-11763
▁Bautista	-11764
▁Bricklin	-11765
▁Colleges	-11766
▁Hardware	-11767
▁Independ	-11768
▁Jonathan	-11769
▁Machines	-11770
▁Needless	-11771
▁Possible	-11772
▁Prestige	-11773
▁Spitfire	-11774
▁Westfall	-11775
▁Williams	-11776
▁absurdum	-11777
▁advances	-11778
▁agreeing	-11779
▁announce	-11780
▁appetite	-11781
▁arriving	-11782
▁attorney	-11783
▁autonomy	-11784
▁barriers	-11785
▁baseline	-11786
▁behaving	-11787
▁believes	-11788
▁billions	-11789
▁boldness	-11790
▁bootstra	-11791
▁browsers	-11792
▁calculus	-11793
▁catapult	-11794
▁cautious	-11795
▁cavalier	-11796
▁charming	-11797
▁cheapest	-11798
▁cheerful	-11799
▁chemical	-11800
▁citizens	-11801
▁cleaning	-11802
▁clearest	-11803
▁coincide	-11804
▁combines	-11805
▁concentr	-11806
▁configur	-11807
▁contrast	-11808
▁criteria	-11809
▁damaging	-11810
▁defeated	-11811
▁dictated	-11812
▁disappro	-11813
▁dismayed	-11814
▁disprove	-11815
▁district	-11816
▁dividing	-11817
▁doodling	-11818
▁drawback	-11819
▁drawings	-11820
▁enforced	-11821
▁excluded	-11822
▁excludes	-11823
▁expended	-11824
▁exposure	-11825
▁extremes	-11826
▁feasible	-11827
▁feelings	-11828
▁formally	-11829
▁formulas	-11830
▁gruesome	-11831
▁historic	-11832
▁honestly	-11833
▁hospital	-11834
▁humility	-11835
▁illiquid	-11836
▁impulses	-11837
▁incompre	-11838
▁insisted	-11839
▁inventor	-11840
▁irresist	-11841
▁lawsuits	-11842
▁listened	-11843
▁lobbying	-11844
▁lukewarm	-11845
▁manifest	-11846
▁ornament	-11847
▁outdated	-11848
▁outlying	-11849
▁paradise	-11850
▁patience	-11851
▁pipeline	-11852
▁polarity	-11853
▁postpone	-11854
▁premises	-11855
▁presence	-11856
▁presents	-11857
▁prosecut	-11858
▁prudence	-11859
▁quarters	-11860
▁receipts	-11861
▁refugees	-11862
▁regional	-11863
▁relaxing	-11864
▁replying	-11865
▁resemble	-11866
▁resisted	-11867
▁resonate	-11868
▁roulette	-11869
▁rounding	-11870
▁scanning	-11871
▁sequence	-11872
▁setbacks	-11873
▁sheepish	-11874
▁sinister	-11875
▁smoothly	-11876
▁starving	-11877
▁stepping	-11878
▁stickers	-11879
▁stunning	-11880
▁surround	-11881
▁survives	-11882
▁tempting	-11883
▁terminal	-11884
▁textbook	-11885
▁thinkers	-11886
▁throwing	-11887
▁thursday	-11888
▁trailing	-11889
▁treading	-11890
▁tricking	-11891
▁ugliness	-11892
▁universe	-11893
▁violates	-11894
ausibility	-11895
controlled	-11896
curricular	-11897
sequential	-11898
▁Arrington	-11899
▁Christmas	-11900
▁Corporate	-11901
▁Cultivate	-11902
▁Currently	-11903
▁Enlighten	-11904
▁Investing	-11905
▁Launching	-11906
▁Libraries	-11907
▁Octoparts	-11908
▁Photoshop	-11909
▁Recursion	-11910
▁Testament	-11911
▁Thousands	-11912
▁Victorian	-11913
▁Yerazunis	-11914
▁achieving	-11915
▁addiction	-11916
▁addresses	-11917
▁advocates	-11918
▁assigning	-11919
▁automated	-11920
▁avoidance	-11921
▁axiomatic	-11922
▁backtrack	-11923
▁blueprint	-11924
▁chocolate	-11925
▁civilized	-11926
▁compiling	-11927
▁complaint	-11928
▁conflicts	-11929
▁corrected	-11930
▁coworkers	-11931
▁craziness	-11932
▁creatures	-11933
▁criterion	-11934
▁dimension	-11935
▁directory	-11936
▁dominates	-11937
▁drawbacks	-11938
▁equations	-11939
▁examining	-11940
▁exercises	-11941
▁exhausted	-11942
▁expanding	-11943
▁expecting	-11944
▁extensive	-11945
▁factories	-11946
▁forgiving	-11947
▁handshake	-11948
▁horrified	-11949
▁hospitals	-11950
▁housemate	-11951
▁humorless	-11952
▁imitation	-11953
▁inability	-11954
▁incapable	-11955
▁insoluble	-11956
▁integrity	-11957
▁iterating	-11958
▁licensing	-11959
▁listening	-11960
▁machinery	-11961
▁magnifies	-11962
▁marketers	-11963
▁maximally	-11964
▁meanwhile	-11965
▁memorized	-11966
▁mercenary	-11967
▁messaging	-11968
▁misjudged	-11969
▁nightmare	-11970
▁observant	-11971
▁observers	-11972
▁orthodoxy	-11973
▁outweighs	-11974
▁overwhelm	-11975
▁perennial	-11976
▁personnel	-11977
▁promoting	-11978
▁publishes	-11979
▁receiving	-11980
▁reflected	-11981
▁remembers	-11982
▁reminding	-11983
▁rereading	-11984
▁resembles	-11985
▁schedules	-11986
▁selective	-11987
▁semantics	-11988
▁sestertii	-11989
▁seventeen	-11990
▁shorthand	-11991
▁shoulders	-11992
▁slightest	-11993
▁socialist	-11994
▁statistic	-11995
▁strengths	-11996
▁struggles	-11997
▁subjected	-11998
▁subscript	-11999
▁supplying	-12000
▁takeovers	-12001
▁tautology	-12002
▁tenacious	-12003
▁tentative	-12004
▁terrified	-12005
▁transport	-12006
▁undertake	-12007
▁wholesale	-12008
conceptions	-12009
eregulation	-12010
expressions	-12011
immigration	-12012
intelligent	-12013
reinforcing	-12014
▁Efficiency	-12015
▁Management	-12016
▁Providence	-12017
▁Scientists	-12018
▁Washington	-12019
▁accomplish	-12020
▁announcing	-12021
▁apprentice	-12022
▁attributed	-12023
▁bitterness	-12024
▁brilliance	-12025
▁calculator	-12026
▁cigarettes	-12027
▁constrains	-12028
▁continuing	-12029
▁continuous	-12030
▁coordinate	-12031
▁counteract	-12032
▁delegation	-12033
▁dismissing	-12034
▁downstairs	-12035
▁downstream	-12036
▁enthusiasm	-12037
▁exercising	-12038
▁flattering	-12039
▁flourishes	-12040
▁friendship	-12041
▁gracefully	-12042
▁gratuitous	-12043
▁horizontal	-12044
▁identified	-12045
▁identities	-12046
▁influences	-12047
▁intangible	-12048
▁internally	-12049
▁intriguing	-12050
▁isomorphic	-12051
▁litigation	-12052
▁maintained	-12053
▁narrowness	-12054
▁negligible	-12055
▁objections	-12056
▁obligation	-12057
▁organizing	-12058
▁originated	-12059
▁paraphrase	-12060
▁perception	-12061
▁perceptive	-12062
▁persistent	-12063
▁practicing	-12064
▁preferable	-12065
▁prescribed	-12066
▁preserving	-12067
▁progresses	-12068
▁pronounced	-12069
▁prosperity	-12070
▁protective	-12071
▁provisions	-12072
▁quantities	-12073
▁references	-12074
▁refinement	-12075
▁regulatory	-12076
▁ruthlessly	-12077
▁simplicity	-12078
▁subsequent	-12079
▁successors	-12080
▁suppressed	-12081
▁syndicates	-12082
▁termsheets	-12083
▁unanswered	-12084
▁unexplored	-12085
▁unscalable	-12086
▁unsuitable	-12087
▁virtuously	-12088
▁woodworker	-12089
ootstrapping	-12090
▁Imagination	-12091
▁Measurement	-12092
▁Proposition	-12093
▁Rockefeller	-12094
▁Translation	-12095
▁accelerated	-12096
▁accumulator	-12097
▁aggregators	-12098
▁awkwardness	-12099
▁beautifully	-12100
▁compression	-12101
▁conditional	-12102
▁constitutes	-12103
▁degenerates	-12104
▁digressions	-12105
▁disagreeing	-12106
▁discussions	-12107
▁enforcement	-12108
▁enlightened	-12109
▁exacerbated	-12110
▁exemplified	-12111
▁humiliating	-12112
▁ideological	-12113
▁industrious	-12114
▁inferiority	-12115
▁instruction	-12116
▁legislation	-12117
▁negotiators	-12118
▁obsessively	-12119
▁occurrences	-12120
▁overwhelmed	-12121
▁pedestrians	-12122
▁permissible	-12123
▁politically	-12124
▁preferences	-12125
▁preliminary	-12126
▁pretentious	-12127
▁proportions	-12128
▁realization	-12129
▁reputations	-12130
▁seriousness	-12131
▁simulations	-12132
▁sympathetic	-12133
▁universally	-12134
▁Professional	-12135
▁Structurally	-12136
▁artificially	-12137
▁astonishment	-12138
▁cheeseburger	-12139
▁conceptually	-12140
▁connotations	-12141
▁conservation	-12142
▁contemporary	-12143
▁conveniently	-12144
▁declarations	-12145
▁destinations	-12146
▁disastrously	-12147
▁discriminate	-12148
▁disobedience	-12149
▁disreputable	-12150
▁experimental	-12151
▁gratuitously	-12152
▁illustration	-12153
▁inconsistent	-12154
▁installation	-12155
▁interpreters	-12156
▁introductory	-12157
▁irresistible	-12158
▁mysteriously	-12159
▁observations	-12160
▁occupational	-12161
▁overwhelming	-12162
▁simultaneous	-12163
▁structurally	-12164
▁subconscious	-12165
▁suspiciously	-12166
▁unbelievably	-12167
▁unscrupulous	-12168
▁unsuccessful	-12169
▁Enlightenment	-12170
▁Fundamentally	-12171
▁Mathematician	-12172
▁approximation	-12173
▁collaborative	-12174
▁communication	-12175
▁concentration	-12176
▁consolidation	-12177
▁craftsmanship	-12178
▁disinterested	-12179
▁distinguished	-12180
▁effectiveness	-12181
▁incorporating	-12182
▁incrementally	-12183
▁incriminating	-12184
▁intellectuals	-12185
▁justification	-12186
▁monotonically	-12187
▁nationalistic	-12188
▁paradoxically	-12189
▁promiscuously	-12190
▁retroactively	-12191
▁substantially	-12192
▁synchronously	-12193
▁uncomfortably	-12194
▁unintentional	-12195
▁uninterrupted	-12196
▁Mathematicians	-12197
▁attractiveness	-12198
▁misconceptions	-12199
▁pathologically	-12200
▁representative	-12201
▁understandable	-12202
▁understatement	-12203
----------------	-12204
entrepreneurship	-12205
▁entrepreneurial	-12206
▁inconsequential	-12207
▁microscopically	-12208
▁unintentionally	-12209
',	-12210
);	-12211
-3	-12212
-8	-12213
09	-12214
1)	-12215
13	-12216
4)	-12217
4]	-12218
70	-12219
72	-12220
77	-12221
83	-12222
87	-12223
:3	-12224
AR	-12225
Ab	-12226
Ad	-12227
Ar	-12228
BI	-12229
Bl	-12230
CP	-12231
Cl	-12232
De	-12233
Ds	-12234
MS	-12235
NS	-12236
OL	-12237
WS	-12238
dy	-12239
ez	-12240
gu	-12241
sp	-12242
ss	-12243
tr	-12244
yl	-12245
++:	-12246
-20	-12247
50.	-12248
500	-12249
Are	-12250
Bet	-12251
Inc	-12252
Int	-12253
Kru	-12254
Our	-12255
Pat	-12256
__(	-12257
aca	-12258
ads	-12259
ags	-12260
aka	-12261
aud	-12262
awn	-12263
bab	-12264
beg	-12265
chi	-12266
col	-12267
czy	-12268
del	-12269
dly	-12270
equ	-12271
eve	-12272
fan	-12273
few	-12274
fia	-12275
gar	-12276
hum	-12277
iar	-12278
ias	-12279
igr	-12280
imm	-12281
ipp	-12282
jad	-12283
jar	-12284
lib	-12285
lix	-12286
log	-12287
lta	-12288
map	-12289
non	-12290
ogy	-12291
oli	-12292
omb	-12293
oos	-12294
ops	-12295
osl	-12296
oys	-12297
pie	-12298
pin	-12299
5%.	-12300
raq	-12301
rig	-12302
rol	-12303
sey	-12304
spr	-12305
sts	-12306
tax	-12307
try	-12308
uhn	-12309
uri	-12310
usk	-12311
uts	-12312
uty	-12313
wow	-12314
yal	-12315
yes	-12316
zfe	-12317
▁")	-12318
▁".	-12319
▁2:	-12320
▁37	-12321
▁38	-12322
▁3:	-12323
▁56	-12324
▁57	-12325
▁6%	-12326
▁83	-12327
▁84	-12328
▁93	-12329
▁95	-12330
▁AA	-12331
▁Bo	-12332
▁CO	-12333
▁Dr	-12334
▁Fe	-12335
▁GQ	-12336
▁Id	-12337
▁Kn	-12338
▁Ly	-12339
▁Ma	-12340
▁Ox	-12341
▁PG	-12342
▁Ts	-12343
▁VP	-12344
▁Vi	-12345
▁cc	-12346
▁ho	-12347
Free	-12348
Just	-12349
List	-12350
Mart	-12351
Mell	-12352
More	-12353
abil	-12354
acon	-12355
acri	-12356
adel	-12357
agle	-12358
aker	-12359
alls	-12360
anda	-12361
andw	-12362
anos	-12363
aris	-12364
arnt	-12365
arse	-12366
arty	-12367
aten	-12368
auer	-12369
avor	-12370
bait	-12371
bean	-12372
brid	-12373
buzz	-12374
cock	-12375
core	-12376
cost	-12377
cter	-12378
ctio	-12379
czyk	-12380
deal	-12381
ders	-12382
dles	-12383
drop	-12384
edes	-12385
eing	-12386
emes	-12387
enda	-12388
erer	-12389
even	-12390
exec	-12391
exit	-12392
expl	-12393
fair	-12394
fare	-12395
five	-12396
full	-12397
gage	-12398
gate	-12399
Any	-12400
alov	-12401
gedy	-12402
grad	-12403
gree	-12404
grid	-12405
gypt	-12406
hard	-12407
hour	-12408
iced	-12409
idem	-12410
iege	-12411
igue	-12412
ikip	-12413
init	-12414
inst	-12415
ippi	-12416
isan	-12417
kers	-12418
ktop	-12419
life	-12420
live	-12421
look	-12422
main	-12423
make	-12424
meal	-12425
mist	-12426
mmed	-12427
move	-12428
need	-12429
nerd	-12430
obel	-12431
odes	-12432
olto	-12433
oods	-12434
oops	-12435
opes	-12436
oves	-12437
phan	-12438
phaz	-12439
phem	-12440
phia	-12441
pire	-12442
rael	-12443
renz	-12444
requ	-12445
ride	-12446
roev	-12447
roke	-12448
rose	-12449
seud	-12450
sily	-12451
stit	-12452
such	-12453
then	-12454
trad	-12455
type	-12456
uber	-12457
ucks	-12458
udge	-12459
uise	-12460
upon	-12461
user	-12462
wall	-12463
when	-12464
writ	-12465
▁$16	-12466
▁11%	-12467
▁165	-12468
▁185	-12469
▁21,	-12470
▁25%	-12471
▁250	-12472
▁700	-12473
▁80%	-12474
▁800	-12475
▁Amb	-12476
▁Bal	-12477
▁Ble	-12478
▁Bur	-12479
▁Bus	-12480
▁Cad	-12481
▁Dec	-12482
▁Dig	-12483
▁DoD	-12484
▁Dom	-12485
▁Ell	-12486
▁Fed	-12487
▁Guy	-12488
▁Her	-12489
▁Ith	-12490
▁Jay	-12491
▁Kaz	-12492
▁Kir	-12493
▁Lam	-12494
▁Lex	-12495
▁Lou	-12496
▁Lux	-12497
▁Men	-12498
▁Mot	-12499
AndB	-12500
▁$60	-12501
▁0%9	-12502
▁704	-12503
▁Moz	-12504
▁NPR	-12505
▁Nas	-12506
▁Nat	-12507
▁Nav	-12508
▁Net	-12509
▁Peb	-12510
▁Pet	-12511
▁Ret	-12512
▁Run	-12513
▁SSL	-12514
▁Sag	-12515
▁Sea	-12516
▁Six	-12517
▁Sol	-12518
▁Sus	-12519
▁TCP	-12520
▁TVs	-12521
▁Tax	-12522
▁Top	-12523
▁Tow	-12524
▁Typ	-12525
▁Ven	-12526
▁Wat	-12527
▁Way	-12528
▁Wow	-12529
▁Zak	-12530
▁[4]	-12531
▁agr	-12532
▁aid	-12533
▁alt	-12534
▁aug	-12535
▁blo	-12536
▁bou	-12537
▁egg	-12538
▁gas	-12539
▁hur	-12540
▁ink	-12541
▁kit	-12542
▁lur	-12543
▁mic	-12544
▁mim	-12545
▁mud	-12546
▁nih	-12547
▁nom	-12548
▁nut	-12549
▁pry	-12550
▁que	-12551
▁rab	-12552
▁ram	-12553
▁ren	-12554
▁umb	-12555
▁una	-12556
▁uph	-12557
▁voy	-12558
▁wiz	-12559
)))))	-12560
Angel	-12561
Being	-12562
Great	-12563
Micro	-12564
Those	-12565
Would	-12566
acker	-12567
acter	-12568
aling	-12569
althy	-12570
amina	-12571
anges	-12572
anity	-12573
anked	-12574
ardly	-12575
astro	-12576
athon	-12577
atile	-12578
aults	-12579
baric	-12580
berry	-12581
bling	-12582
boats	-12583
bound	-12584
broad	-12585
could	-12586
crats	-12587
ctors	-12588
ddler	-12589
death	-12590
deeds	-12591
dress	-12592
earse	-12593
edged	-12594
eding	-12595
eland	-12596
elisk	-12597
enger	-12598
enter	-12599
▁Buy	-12600
▁FBI	-12601
erous	-12602
erred	-12603
faced	-12604
faces	-12605
fying	-12606
ghing	-12607
grade	-12608
hesia	-12609
hetic	-12610
iased	-12611
icked	-12612
icken	-12613
icker	-12614
ickly	-12615
ickst	-12616
idges	-12617
ieved	-12618
ifice	-12619
ifier	-12620
ighth	-12621
ilded	-12622
ilipp	-12623
illac	-12624
illon	-12625
inals	-12626
inson	-12627
iques	-12628
isham	-12629
istry	-12630
itate	-12631
iters	-12632
ivals	-12633
lease	-12634
lique	-12635
maybe	-12636
metic	-12637
never	-12638
notes	-12639
oaded	-12640
obile	-12641
ograd	-12642
omore	-12643
onial	-12644
opath	-12645
orado	-12646
ordan	-12647
orses	-12648
orton	-12649
ouset	-12650
ousin	-12651
owitz	-12652
plate	-12653
ports	-12654
quest	-12655
rance	-12656
rased	-12657
ravel	-12658
reaks	-12659
rites	-12660
roman	-12661
roots	-12662
since	-12663
still	-12664
stock	-12665
suits	-12666
terns	-12667
there	-12668
toint	-12669
trend	-12670
tress	-12671
uated	-12672
ulent	-12673
uming	-12674
uracy	-12675
utiny	-12676
vance	-12677
vency	-12678
whose	-12679
words	-12680
worth	-12681
xious	-12682
zfeld	-12683
▁$160	-12684
▁$250	-12685
▁$400	-12686
▁(100	-12687
▁100,	-12688
▁101.	-12689
▁1200	-12690
▁1600	-12691
▁1630	-12692
▁1914	-12693
▁1917	-12694
▁1957	-12695
▁1958	-12696
▁1968	-12697
▁1992	-12698
▁1994	-12699
Err	-12700
oufl	-12701
▁98%	-12702
▁APL	-12703
▁BBN	-12704
▁NBA	-12705
▁TRS	-12706
aumol	-12707
▁1999	-12708
▁2011	-12709
▁2017	-12710
▁25%.	-12711
▁4000	-12712
▁5-7%	-12713
▁90%.	-12714
▁Alan	-12715
▁Asia	-12716
▁Asse	-12717
▁Barn	-12718
▁Bass	-12719
▁Bond	-12720
▁Bull	-12721
▁CPUs	-12722
▁Carm	-12723
▁Cars	-12724
▁Code	-12725
▁Come	-12726
▁Cond	-12727
▁Cook	-12728
▁Cred	-12729
▁Data	-12730
▁Dell	-12731
▁Drew	-12732
▁Earn	-12733
▁Ever	-12734
▁Fall	-12735
▁Fame	-12736
▁Fear	-12737
▁Ferr	-12738
▁Fier	-12739
▁Fish	-12740
▁Gone	-12741
▁Gore	-12742
▁Hall	-12743
▁Hans	-12744
▁Hart	-12745
▁Hert	-12746
▁Hoff	-12747
▁ISPs	-12748
▁Idea	-12749
▁Joel	-12750
▁Kell	-12751
▁Klee	-12752
▁Long	-12753
▁Lord	-12754
▁Marx	-12755
▁Mary	-12756
▁Mass	-12757
▁Mess	-12758
▁Ming	-12759
▁Miss	-12760
▁Mona	-12761
▁Nitz	-12762
▁OSes	-12763
▁Pers	-12764
▁PhDs	-12765
▁Plat	-12766
▁Post	-12767
▁Rate	-12768
▁Resp	-12769
▁Rock	-12770
▁Show	-12771
▁Soon	-12772
▁Sort	-12773
▁Stat	-12774
▁Stop	-12775
▁Ther	-12776
▁Type	-12777
▁Usen	-12778
▁VIII	-12779
▁Verm	-12780
▁Walk	-12781
▁Week	-12782
▁Yang	-12783
▁Yuri	-12784
▁aber	-12785
▁aest	-12786
▁aged	-12787
▁akin	-12788
▁asht	-12789
▁atro	-12790
▁balk	-12791
▁bans	-12792
▁bars	-12793
▁bell	-12794
▁boys	-12795
▁buds	-12796
▁bush	-12797
▁cafe	-12798
▁cler	-12799
▁#'	-12800
dogs	-12801
▁Albu	-12802
▁Kiko	-12803
▁clip	-12804
▁coal	-12805
▁cord	-12806
▁crab	-12807
▁cree	-12808
▁crew	-12809
▁croo	-12810
▁curs	-12811
▁curt	-12812
▁damp	-12813
▁dayd	-12814
▁dens	-12815
▁dick	-12816
▁dies	-12817
▁drow	-12818
▁drud	-12819
▁exch	-12820
▁eyeb	-12821
▁film	-12822
▁fing	-12823
▁fold	-12824
▁fond	-12825
▁fork	-12826
▁frug	-12827
▁fuel	-12828
▁fulf	-12829
▁gene	-12830
▁geom	-12831
▁gift	-12832
▁gods	-12833
▁gull	-12834
▁heap	-12835
▁heel	-12836
▁heli	-12837
▁hilt	-12838
▁hing	-12839
▁hint	-12840
▁hipp	-12841
▁horm	-12842
▁hott	-12843
▁hype	-12844
▁inad	-12845
▁jerk	-12846
▁jury	-12847
▁latt	-12848
▁lawn	-12849
▁leak	-12850
▁loan	-12851
▁lord	-12852
▁lows	-12853
▁lump	-12854
▁lung	-12855
▁lure	-12856
▁mand	-12857
▁mant	-12858
▁misf	-12859
▁mods	-12860
▁murd	-12861
▁myth	-12862
▁nail	-12863
▁nbad	-12864
▁nick	-12865
▁node	-12866
▁pace	-12867
▁peer	-12868
▁pend	-12869
▁pian	-12870
▁pier	-12871
▁pole	-12872
▁pomp	-12873
▁prey	-12874
▁rall	-12875
▁reag	-12876
▁rend	-12877
▁rode	-12878
▁scam	-12879
▁seal	-12880
▁siph	-12881
▁smug	-12882
▁snap	-12883
▁sock	-12884
▁soul	-12885
▁span	-12886
▁spur	-12887
▁sunk	-12888
▁tack	-12889
▁tame	-12890
▁tape	-12891
▁thro	-12892
▁tier	-12893
▁toll	-12894
▁tran	-12895
▁tube	-12896
▁unch	-12897
▁undo	-12898
▁upbr	-12899
▁AOL	-12900
▁AWS	-12901
▁Cez	-12902
▁Iraq	-12903
▁Kuhn	-12904
▁ajar	-12905
▁wake	-12906
▁warm	-12907
▁wash	-12908
▁wore	-12909
▁yeah	-12910
Kruger	-12911
Mellon	-12912
Partly	-12913
Really	-12914
Should	-12915
Viaweb	-12916
accept	-12917
achter	-12918
alecks	-12919
almost	-12920
angled	-12921
anking	-12922
arding	-12923
around	-12924
associ	-12925
asters	-12926
ateral	-12927
awking	-12928
azines	-12929
better	-12930
coming	-12931
compet	-12932
ducted	-12933
ective	-12934
ectual	-12935
emeier	-12936
encing	-12937
ervant	-12938
esides	-12939
estyle	-12940
eteria	-12941
expert	-12942
finite	-12943
formed	-12944
future	-12945
gienic	-12946
handed	-12947
icycle	-12948
igible	-12949
igning	-12950
imagin	-12951
imedes	-12952
insula	-12953
irties	-12954
itized	-12955
itrust	-12956
ixture	-12957
keeper	-12958
killed	-12959
lambda	-12960
lingly	-12961
liquid	-12962
living	-12963
mbling	-12964
mostly	-12965
mother	-12966
ograph	-12967
ometer	-12968
omfort	-12969
opping	-12970
option	-12971
orance	-12972
orrect	-12973
ortune	-12974
ostors	-12975
oulder	-12976
pieces	-12977
ported	-12978
profit	-12979
raised	-12980
repres	-12981
rinted	-12982
seeing	-12983
should	-12984
spring	-12985
teries	-12986
umbled	-12987
umbler	-12988
unlike	-12989
ursive	-12990
velope	-12991
witted	-12992
yellow	-12993
ypical	-12994
ysical	-12995
▁1100,	-12996
▁1200,	-12997
▁1876,	-12998
▁1958,	-12999
▁1968.	-13000
▁1970.	-13001
▁1974,	-13002
▁1976,	-13003
▁1984.	-13004
▁1985.	-13005
▁1988,	-13006
▁1993,	-13007
▁1995.	-13008
▁1999,	-13009
▁2001.	-13010
▁2003,	-13011
▁2004(	-13012
▁2006.	-13013
▁2007,	-13014
▁2008,	-13015
▁Amjad	-13016
▁Anton	-13017
▁Barry	-13018
▁Bloom	-13019
▁Books	-13020
▁Child	-13021
▁Clara	-13022
▁Claus	-13023
▁Count	-13024
▁Court	-13025
▁Crick	-13026
▁Curie	-13027
▁Dixon	-13028
▁Doerr	-13029
▁Dress	-13030
▁Drive	-13031
▁Egypt	-13032
▁Email	-13033
▁Finan	-13034
▁Hutch	-13035
▁Ident	-13036
▁Isaac	-13037
▁Korea	-13038
▁Lever	-13039
▁Lewis	-13040
▁Lower	-13041
▁Maine	-13042
▁Marie	-13043
▁Masad	-13044
▁Mason	-13045
▁Mayle	-13046
▁Niger	-13047
▁Nobel	-13048
▁Noora	-13049
▁North	-13050
▁Point	-13051
▁Polit	-13052
▁Prose	-13053
▁Rabin	-13054
▁Ronco	-13055
▁Roser	-13056
▁Route	-13057
▁Sales	-13058
▁Sites	-13059
▁Skunk	-13060
▁Skype	-13061
▁Stein	-13062
▁Stone	-13063
▁Suits	-13064
▁Tenth	-13065
▁Troll	-13066
▁Wikip	-13067
▁Words	-13068
▁Worry	-13069
▁Wrong	-13070
▁Xfire	-13071
▁Yanke	-13072
▁Youth	-13073
▁``$--	-13074
▁adept	-13075
▁afoot	-13076
▁alike	-13077
▁alter	-13078
▁apple	-13079
▁arist	-13080
▁arith	-13081
▁arose	-13082
▁asses	-13083
▁atoms	-13084
▁babys	-13085
▁badge	-13086
▁bells	-13087
▁bicyc	-13088
▁bleak	-13089
▁bloom	-13090
▁blust	-13091
▁bombs	-13092
▁capac	-13093
▁cells	-13094
▁cents	-13095
▁churn	-13096
▁clubs	-13097
▁crypt	-13098
▁cumin	-13099
▁daddy	-13100
▁dared	-13101
▁daren	-13102
▁daugh	-13103
▁daunt	-13104
▁dealt	-13105
▁delta	-13106
▁digit	-13107
▁discl	-13108
▁ditch	-13109
▁drama	-13110
▁dwell	-13111
▁ecosy	-13112
▁ephem	-13113
▁erase	-13114
▁faint	-13115
▁fills	-13116
▁fleas	-13117
▁flesh	-13118
▁flick	-13119
▁flush	-13120
▁foods	-13121
▁forth	-13122
▁frees	-13123
▁frenz	-13124
▁ghost	-13125
▁hears	-13126
▁homes	-13127
▁hoops	-13128
▁hurry	-13129
▁inert	-13130
▁inval	-13131
▁jaded	-13132
▁kicks	-13133
▁knife	-13134
▁knock	-13135
▁lasts	-13136
▁liars	-13137
▁loads	-13138
▁lords	-13139
▁lumpy	-13140
▁mafia	-13141
▁manus	-13142
▁mater	-13143
▁mines	-13144
▁molds	-13145
▁monst	-13146
▁mouse	-13147
▁navig	-13148
▁nerdy	-13149
▁newer	-13150
▁nihil	-13151
▁nodes	-13152
▁nonex	-13153
▁numer	-13154
▁omnis	-13155
▁ostra	-13156
▁outdo	-13157
▁perme	-13158
▁petty	-13159
▁pipes	-13160
▁pizza	-13161
▁plead	-13162
▁poker	-13163
▁ports	-13164
▁probe	-13165
▁probs	-13166
▁pseud	-13167
▁rearr	-13168
▁rebel	-13169
▁recur	-13170
▁renov	-13171
▁repel	-13172
▁rides	-13173
▁roots	-13174
▁royal	-13175
▁safes	-13176
▁sandw	-13177
▁saves	-13178
▁savor	-13179
▁sedan	-13180
▁semin	-13181
▁shark	-13182
▁shiny	-13183
▁ships	-13184
▁skate	-13185
▁slept	-13186
▁slice	-13187
▁smell	-13188
▁solar	-13189
▁spark	-13190
▁spell	-13191
▁spill	-13192
▁spoof	-13193
▁squir	-13194
▁stalk	-13195
▁stays	-13196
▁steer	-13197
▁stiff	-13198
▁storm	-13199
▁sugar	-13200
▁surre	-13201
▁swept	-13202
▁tanks	-13203
▁theme	-13204
▁therm	-13205
▁tower	-13206
▁tract	-13207
▁traps	-13208
▁truer	-13209
▁tubes	-13210
▁urban	-13211
▁verbs	-13212
▁wears	-13213
▁wince	-13214
▁wired	-13215
▁witch	-13216
Collins	-13217
However	-13218
Startup	-13219
anderth	-13220
another	-13221
avishly	-13222
coaster	-13223
control	-13224
ctioned	-13225
ensions	-13226
erseded	-13227
ersonal	-13228
estruct	-13229
hackers	-13230
idently	-13231
iliates	-13232
jective	-13233
justice	-13234
knowing	-13235
letters	-13236
marking	-13237
mmetric	-13238
orcycle	-13239
othesis	-13240
passing	-13241
patents	-13242
pinions	-13243
planted	-13244
playing	-13245
pleased	-13246
popular	-13247
querque	-13248
ranking	-13249
reating	-13250
release	-13251
ritical	-13252
roadway	-13253
ructing	-13254
seeable	-13255
selfish	-13256
serious	-13257
signals	-13258
smoking	-13259
subject	-13260
usingly	-13261
▁Actors	-13262
▁Affect	-13263
▁Alfred	-13264
▁Allred	-13265
▁Always	-13266
▁Applic	-13267
▁Assume	-13268
▁Austin	-13269
▁Balzac	-13270
▁Baumol	-13271
▁Bronze	-13272
▁Carver	-13273
▁Choose	-13274
▁Conrad	-13275
▁Determ	-13276
▁Euclid	-13277
▁Expert	-13278
▁Flying	-13279
▁Follow	-13280
▁Future	-13281
▁Gilded	-13282
▁Haters	-13283
▁Health	-13284
▁Hiring	-13285
▁Honest	-13286
▁Inform	-13287
▁Ingrid	-13288
▁Instit	-13289
▁Ithaca	-13290
▁Jaynes	-13291
▁Jordan	-13292
▁Kickst	-13293
▁Knight	-13294
▁Korean	-13295
▁Letter	-13296
▁Middle	-13297
▁Oxford	-13298
▁Period	-13299
▁Police	-13300
▁Prices	-13301
▁Relent	-13302
▁Result	-13303
▁Reveal	-13304
▁Samuel	-13305
▁Secret	-13306
▁Seeing	-13307
▁Speech	-13308
▁Strict	-13309
▁Syntax	-13310
▁Taking	-13311
▁Toward	-13312
▁Twenty	-13313
▁Unlike	-13314
▁Useful	-13315
▁Venice	-13316
▁Visual	-13317
▁Watson	-13318
▁______	-13319
▁accuse	-13320
▁advers	-13321
▁agenda	-13322
▁anaest	-13323
▁annoys	-13324
▁armies	-13325
▁arrest	-13326
▁astron	-13327
▁averse	-13328
▁backed	-13329
▁baldly	-13330
▁beware	-13331
▁blamed	-13332
▁booted	-13333
▁borrow	-13334
▁bricks	-13335
▁butter	-13336
▁camera	-13337
▁campus	-13338
▁cannib	-13339
▁captiv	-13340
▁cheery	-13341
▁circle	-13342
▁clause	-13343
▁collar	-13344
▁comedy	-13345
▁compos	-13346
▁compre	-13347
▁cooker	-13348
▁cooler	-13349
▁copied	-13350
▁costly	-13351
▁cousin	-13352
▁covers	-13353
▁cracks	-13354
▁crimes	-13355
▁curing	-13356
▁cutoff	-13357
▁damned	-13358
▁dawned	-13359
▁defeat	-13360
▁delude	-13361
▁democr	-13362
▁detach	-13363
▁detour	-13364
▁dispos	-13365
▁diving	-13366
▁donate	-13367
▁edited	-13368
▁eighth	-13369
▁epidem	-13370
▁errand	-13371
▁evange	-13372
▁evenly	-13373
▁exempt	-13374
▁expans	-13375
▁expedi	-13376
▁explos	-13377
▁facial	-13378
▁facile	-13379
▁fallen	-13380
▁farmer	-13381
▁ferret	-13382
▁filing	-13383
▁firmly	-13384
▁flavor	-13385
▁floors	-13386
▁forest	-13387
▁frauds	-13388
▁gather	-13389
▁giants	-13390
▁glance	-13391
▁grumpy	-13392
▁guided	-13393
▁handhe	-13394
▁haphaz	-13395
▁harmed	-13396
▁hearts	-13397
▁heroin	-13398
▁hiking	-13399
▁horses	-13400
▁hybrid	-13401
▁immigr	-13402
▁impact	-13403
▁induce	-13404
▁inexor	-13405
▁influx	-13406
▁insign	-13407
▁intros	-13408
▁intuit	-13409
▁invade	-13410
▁joined	-13411
▁keenly	-13412
▁lacked	-13413
▁lambda	-13414
▁learns	-13415
▁legisl	-13416
▁listed	-13417
▁locked	-13418
▁loosen	-13419
▁marble	-13420
▁marvel	-13421
▁maxima	-13422
▁merged	-13423
▁mildly	-13424
▁mouset	-13425
▁neatly	-13426
▁nomads	-13427
▁noneth	-13428
▁notion	-13429
▁onions	-13430
▁opaque	-13431
▁owning	-13432
▁parser	-13433
▁pepper	-13434
▁potato	-13435
▁preten	-13436
▁prizes	-13437
▁purity	-13438
▁pursue	-13439
▁refere	-13440
▁reflex	-13441
▁resume	-13442
▁revert	-13443
▁rivers	-13444
▁rocket	-13445
▁ruined	-13446
▁ruling	-13447
▁safest	-13448
▁scared	-13449
▁shrank	-13450
▁silver	-13451
▁sitcom	-13452
▁skiing	-13453
▁sleeve	-13454
▁sliver	-13455
▁sloppy	-13456
▁sparse	-13457
▁speaks	-13458
▁spends	-13459
▁stakes	-13460
▁stayed	-13461
▁steers	-13462
▁stigma	-13463
▁summed	-13464
▁surest	-13465
▁survey	-13466
▁swampy	-13467
▁sweats	-13468
▁tablet	-13469
▁taller	-13470
▁tangle	-13471
▁tapped	-13472
▁taxing	-13473
▁trains	-13474
▁trials	-13475
▁tribal	-13476
▁uneasy	-13477
▁uneven	-13478
▁unfore	-13479
▁unorth	-13480
▁update	-13481
▁upshot	-13482
▁upvote	-13483
▁usable	-13484
▁vacant	-13485
▁vetoed	-13486
▁viewed	-13487
▁virgin	-13488
▁wedded	-13489
▁widens	-13490
▁wiring	-13491
▁wishes	-13492
▁wooden	-13493
▁worker	-13494
American	-13495
AndBreak	-13496
Whatever	-13497
Whenever	-13498
adelphia	-13499
aintance	-13500
artments	-13501
breaking	-13502
ceedings	-13503
charczyk	-13504
distance	-13505
dropping	-13506
eresting	-13507
esterday	-13508
finitely	-13509
formance	-13510
gressive	-13511
iculture	-13512
ivalence	-13513
literary	-13514
mittedly	-13515
obbyists	-13516
ocentric	-13517
ocracies	-13518
ologists	-13519
opolitan	-13520
ordained	-13521
otically	-13522
possibly	-13523
pressing	-13524
ractical	-13525
ractions	-13526
research	-13527
roeville	-13528
rogative	-13529
ructured	-13530
specific	-13531
startups	-13532
twenties	-13533
vergence	-13534
whatever	-13535
▁$16,000	-13536
▁$80,000	-13537
▁Android	-13538
▁Angeles	-13539
▁Bellini	-13540
▁Blogger	-13541
▁Buffalo	-13542
▁Carmack	-13543
▁Central	-13544
▁Cheever	-13545
▁Committ	-13546
▁Control	-13547
▁Despite	-13548
▁Dunning	-13549
▁Dynamic	-13550
▁Earlier	-13551
▁Earnest	-13552
▁Exactly	-13553
▁Experts	-13554
▁Explain	-13555
▁Fashion	-13556
▁Feature	-13557
▁Fishman	-13558
▁Frankly	-13559
▁Funding	-13560
▁Garbage	-13561
▁Grisham	-13562
▁Growing	-13563
▁Hansson	-13564
▁Hoffman	-13565
▁Indiana	-13566
▁Judging	-13567
▁Lambert	-13568
▁MacLisp	-13569
▁Normans	-13570
▁Options	-13571
▁Outside	-13572
▁Perkins	-13573
▁Physics	-13574
▁Picking	-13575
▁Procter	-13576
▁Product	-13577
▁Publish	-13578
▁Revenge	-13579
▁Sagalov	-13580
▁Selling	-13581
▁Shivers	-13582
▁Similar	-13583
▁Skyline	-13584
▁Telling	-13585
▁Thought	-13586
▁Vermont	-13587
▁Whoever	-13588
▁amateur	-13589
▁analogy	-13590
▁arrives	-13591
▁asshole	-13592
▁backups	-13593
▁barrier	-13594
▁beating	-13595
▁behaves	-13596
▁betting	-13597
▁bidding	-13598
▁bloated	-13599
▁bracket	-13600
▁breakup	-13601
▁bribery	-13602
▁bumping	-13603
▁camoufl	-13604
▁carrier	-13605
▁casting	-13606
▁chicken	-13607
▁circuit	-13608
▁clutter	-13609
▁collude	-13610
▁complic	-13611
▁concert	-13612
▁confess	-13613
▁corpora	-13614
▁costing	-13615
▁coupled	-13616
▁crashes	-13617
▁crooked	-13618
▁crucial	-13619
▁damaged	-13620
▁debates	-13621
▁delayed	-13622
▁desired	-13623
▁differs	-13624
▁discove	-13625
▁display	-13626
▁disqual	-13627
▁drastic	-13628
▁dropoff	-13629
▁elected	-13630
▁electri	-13631
▁elusive	-13632
▁emerged	-13633
▁emotion	-13634
▁empires	-13635
▁enhance	-13636
▁ensured	-13637
▁entries	-13638
▁envious	-13639
▁erosion	-13640
▁escaped	-13641
▁faraway	-13642
▁fatigue	-13643
▁favored	-13644
▁filling	-13645
▁fingers	-13646
▁flowing	-13647
▁focuses	-13648
▁genetic	-13649
▁glamour	-13650
▁glasses	-13651
▁handled	-13652
▁happily	-13653
▁harmful	-13654
▁harming	-13655
▁harvest	-13656
▁hominem	-13657
▁horizon	-13658
▁horrors	-13659
▁hostile	-13660
▁hottest	-13661
▁husband	-13662
▁iPhones	-13663
▁ideolog	-13664
▁impover	-13665
▁inspire	-13666
▁invaded	-13667
▁jackets	-13668
▁journey	-13669
▁kidding	-13670
▁lasting	-13671
▁leaning	-13672
▁lifting	-13673
▁lobbied	-13674
▁loosely	-13675
▁loyalty	-13676
▁magical	-13677
▁malaria	-13678
▁manuals	-13679
▁married	-13680
▁massive	-13681
▁messing	-13682
▁miracle	-13683
▁mission	-13684
▁modules	-13685
▁morphed	-13686
▁motions	-13687
▁newborn	-13688
▁notices	-13689
▁obelisk	-13690
▁oblique	-13691
▁onerous	-13692
▁opening	-13693
▁optimum	-13694
▁outcast	-13695
▁outsell	-13696
▁overrun	-13697
▁packets	-13698
▁pausing	-13699
▁payload	-13700
▁pervade	-13701
▁phrased	-13702
▁pierced	-13703
▁pirated	-13704
▁plagiar	-13705
▁pleased	-13706
▁pointer	-13707
▁pompous	-13708
▁pricing	-13709
▁printer	-13710
▁punched	-13711
▁quicker	-13712
▁quieter	-13713
▁ranging	-13714
▁ranking	-13715
▁recount	-13716
▁refined	-13717
▁regions	-13718
▁reinfor	-13719
▁relaxed	-13720
▁replies	-13721
▁resolve	-13722
▁reviews	-13723
▁roomful	-13724
▁routing	-13725
▁savings	-13726
▁schemes	-13727
▁scrappy	-13728
▁segment	-13729
▁senders	-13730
▁seniors	-13731
▁servant	-13732
▁sharing	-13733
▁shipped	-13734
▁shocked	-13735
▁skilled	-13736
▁slipped	-13737
▁smelled	-13738
▁solicit	-13739
▁sorting	-13740
▁specify	-13741
▁spirits	-13742
▁sponsor	-13743
▁sprayed	-13744
▁squared	-13745
▁stamina	-13746
▁stimuli	-13747
▁strikes	-13748
▁subsidi	-13749
▁subtler	-13750
▁suicide	-13751
▁swagger	-13752
▁synonym	-13753
▁targets	-13754
▁textual	-13755
▁theater	-13756
▁tighten	-13757
▁tightly	-13758
▁tipping	-13759
▁toddler	-13760
▁toehold	-13761
▁tourist	-13762
▁towards	-13763
▁tragedy	-13764
▁travers	-13765
▁trimmed	-13766
▁unaware	-13767
▁unheard	-13768
▁unlearn	-13769
▁urgency	-13770
▁utopian	-13771
▁victims	-13772
▁village	-13773
▁violent	-13774
▁violins	-13775
▁viruses	-13776
▁vividly	-13777
▁volumes	-13778
▁warfare	-13779
▁warning	-13780
▁warping	-13781
▁weekday	-13782
▁welcome	-13783
Sometimes	-13784
associate	-13785
avascript	-13786
computers	-13787
etrically	-13788
exclusive	-13789
executive	-13790
exploding	-13791
formation	-13792
heartedly	-13793
liquidity	-13794
organized	-13795
quotation	-13796
rapacious	-13797
something	-13798
sometimes	-13799
valuation	-13800
ypothesis	-13801
▁Ambition	-13802
▁Assembly	-13803
▁Cadillac	-13804
▁Colorado	-13805
▁Comments	-13806
▁Cultural	-13807
▁Dilution	-13808
▁Dressing	-13809
▁Explorer	-13810
▁Horowitz	-13811
▁Inttoint	-13812
▁McDonald	-13813
▁Newsweek	-13814
▁Nigerian	-13815
▁Nitzberg	-13816
▁Northern	-13817
▁Nowadays	-13818
▁Republic	-13819
▁Socially	-13820
▁Specific	-13821
▁Spending	-13822
▁Students	-13823
▁Teachers	-13824
▁Theranos	-13825
▁Treating	-13826
▁Trollope	-13827
▁Watching	-13828
▁Winograd	-13829
▁accuracy	-13830
▁accusing	-13831
▁admirari	-13832
▁advocate	-13833
▁agencies	-13834
▁airplane	-13835
▁alienate	-13836
▁allocate	-13837
▁altitude	-13838
▁amounted	-13839
▁analysts	-13840
▁anointed	-13841
▁appealed	-13842
▁approved	-13843
▁ashtrays	-13844
▁assembly	-13845
▁averaged	-13846
▁backbone	-13847
▁bankrupt	-13848
▁barbaric	-13849
▁bearable	-13850
▁boundary	-13851
▁bragging	-13852
▁browsing	-13853
▁calendar	-13854
▁casually	-13855
▁charging	-13856
▁cheating	-13857
▁checkout	-13858
▁circuits	-13859
▁cleverly	-13860
▁clumsily	-13861
▁commands	-13862
▁conceals	-13863
▁conquest	-13864
▁consumes	-13865
▁critique	-13866
▁cupboard	-13867
▁curators	-13868
▁daughter	-13869
▁daunting	-13870
▁declared	-13871
▁declined	-13872
▁deferred	-13873
▁delegate	-13874
▁delivery	-13875
▁deprived	-13876
▁descript	-13877
▁despised	-13878
▁detailed	-13879
▁diligent	-13880
▁domestic	-13881
▁donating	-13882
▁downward	-13883
▁downwind	-13884
▁drudgery	-13885
▁embodies	-13886
▁eminence	-13887
▁endanger	-13888
▁entrance	-13889
▁equality	-13890
▁examined	-13891
▁excesses	-13892
▁exploded	-13893
▁extended	-13894
▁eyebrows	-13895
▁facebook	-13896
▁fairness	-13897
▁fatalism	-13898
▁filtered	-13899
▁formerly	-13900
▁fourteen	-13901
▁freshman	-13902
▁frontier	-13903
▁generous	-13904
▁goodness	-13905
▁graffiti	-13906
▁grandmas	-13907
▁gripping	-13908
▁gullible	-13909
▁heretics	-13910
▁hipsters	-13911
▁idleness	-13912
▁implying	-13913
▁inadvert	-13914
▁incompar	-13915
▁indicate	-13916
▁infected	-13917
▁infinity	-13918
▁inserted	-13919
▁invading	-13920
▁landscap	-13921
▁laughing	-13922
▁laughter	-13923
▁linkbait	-13924
▁linkjack	-13925
▁luxuries	-13926
▁marathon	-13927
▁mattress	-13928
▁memories	-13929
▁microman	-13930
▁micropro	-13931
▁minimize	-13932
▁misdeeds	-13933
▁mistreat	-13934
▁mistrust	-13935
▁mosquito	-13936
▁mutually	-13937
▁normally	-13938
▁northern	-13939
▁occupied	-13940
▁omission	-13941
▁openness	-13942
▁operates	-13943
▁optional	-13944
▁organism	-13945
▁overcomp	-13946
▁overhear	-13947
▁overhire	-13948
▁overpaid	-13949
▁painless	-13950
▁paranoid	-13951
▁parental	-13952
▁pastoral	-13953
▁patients	-13954
▁pendulum	-13955
▁pervaded	-13956
▁perverse	-13957
▁plugging	-13958
▁precious	-13959
▁predates	-13960
▁predicts	-13961
▁profiles	-13962
▁prolifer	-13963
▁promptly	-13964
▁purchase	-13965
▁quitting	-13966
▁rallying	-13967
▁rankings	-13968
▁reactors	-13969
▁reductio	-13970
▁rehearse	-13971
▁remedial	-13972
▁removing	-13973
▁requests	-13974
▁sandwich	-13975
▁scooping	-13976
▁scrutiny	-13977
▁sections	-13978
▁seedling	-13979
▁serially	-13980
▁sessions	-13981
▁sexually	-13982
▁shoppers	-13983
▁shortest	-13984
▁shoulder	-13985
▁siblings	-13986
▁simplify	-13987
▁skillful	-13988
▁sleeping	-13989
▁slowness	-13990
▁sneaking	-13991
▁solvency	-13992
▁spectral	-13993
▁stalling	-13994
▁stampede	-13995
▁sticking	-13996
▁supplies	-13997
▁supports	-13998
▁swimming	-13999
▁taxation	-14000
▁thirties	-14001
▁tracking	-14002
▁trickery	-14003
▁troubled	-14004
▁unemploy	-14005
▁unimagin	-14006
▁unstable	-14007
▁upstairs	-14008
▁verified	-14009
▁wasteful	-14010
▁weakened	-14011
experience	-14012
increasing	-14013
itarianism	-14014
structured	-14015
subjective	-14016
▁Audiences	-14017
▁Classical	-14018
▁Designing	-14019
▁Economist	-14020
▁Frankston	-14021
▁Hertzfeld	-14022
▁Ignorance	-14023
▁Imitating	-14024
▁Innocence	-14025
▁Modernism	-14026
▁Professor	-14027
▁Questions	-14028
▁Realizing	-14029
▁Reporters	-14030
▁Schachter	-14031
▁Structure	-14032
▁Surprises	-14033
▁Wikipedia	-14034
▁admission	-14035
▁amazingly	-14036
▁analogous	-14037
▁announced	-14038
▁annoyance	-14039
▁anonymous	-14040
▁apologize	-14041
▁approvals	-14042
▁arranging	-14043
▁arrogance	-14044
▁attorneys	-14045
▁behaviors	-14046
▁bestowing	-14047
▁blacklist	-14048
▁bogusness	-14049
▁bookshops	-14050
▁cafeteria	-14051
▁celebrity	-14052
▁cluttered	-14053
▁cockroach	-14054
▁colleague	-14055
▁communist	-14056
▁concisely	-14057
▁contracts	-14058
▁converged	-14059
▁converted	-14060
▁craftsmen	-14061
▁criticize	-14062
▁deadlocks	-14063
▁defenders	-14064
▁deviation	-14065
▁directing	-14066
▁disgusted	-14067
▁disintegr	-14068
▁dismisses	-14069
▁displaced	-14070
▁dissatisf	-14071
▁distorted	-14072
▁distribut	-14073
▁downfield	-14074
▁ecosystem	-14075
▁egregious	-14076
▁ephemeral	-14077
▁euphemism	-14078
▁exploding	-14079
▁explosion	-14080
▁extension	-14081
▁fashioned	-14082
▁financing	-14083
▁furniture	-14084
▁gentlemen	-14085
▁histories	-14086
▁imagining	-14087
▁imbalance	-14088
▁immovable	-14089
▁importing	-14090
▁impostors	-14091
▁impresses	-14092
▁incorrect	-14093
▁incubator	-14094
▁indicates	-14095
▁indulging	-14096
▁ingenious	-14097
▁injustice	-14098
▁integrate	-14099
▁intersect	-14100
▁liability	-14101
▁lifeboats	-14102
▁lifestyle	-14103
▁lifetimes	-14104
▁locations	-14105
▁mandatory	-14106
▁mattering	-14107
▁misrepres	-14108
▁modernist	-14109
▁motivates	-14110
▁musicians	-14111
▁negatives	-14112
▁neighbors	-14113
▁nerdiness	-14114
▁obscurity	-14115
▁observing	-14116
▁occurring	-14117
▁offspring	-14118
▁oligopoly	-14119
▁overnight	-14120
▁pandering	-14121
▁paramount	-14122
▁passivity	-14123
▁peninsula	-14124
▁permanent	-14125
▁phenomena	-14126
▁piecemeal	-14127
▁pleasures	-14128
▁pollsters	-14129
▁populated	-14130
▁portraits	-14131
▁practices	-14132
▁precedent	-14133
▁precision	-14134
▁pregnancy	-14135
▁preparing	-14136
▁pressures	-14137
▁primitive	-14138
▁privately	-14139
▁procedure	-14140
▁profiling	-14141
▁proofread	-14142
▁proximate	-14143
▁purchases	-14144
▁radiating	-14145
▁recruited	-14146
▁recursive	-14147
▁redundant	-14148
▁referring	-14149
▁residents	-14150
▁resistant	-14151
▁respected	-14152
▁scheduled	-14153
▁screaming	-14154
▁separated	-14155
▁separates	-14156
▁smallness	-14157
▁sophomore	-14158
▁speculate	-14159
▁sponsored	-14160
▁squeezing	-14161
▁startling	-14162
▁stateless	-14163
▁submitted	-14164
▁surrounds	-14165
▁surviving	-14166
▁suspicion	-14167
▁targeting	-14168
▁telephone	-14169
▁testimony	-14170
▁tolerated	-14171
▁tradeoffs	-14172
▁treatment	-14173
▁underrate	-14174
▁unhealthy	-14175
▁unselfish	-14176
▁visionary	-14177
▁volunteer	-14178
▁wasteland	-14179
▁whitelist	-14180
▁yellowist	-14181
Fortunately	-14182
atistically	-14183
consciously	-14184
controlling	-14185
ufficiently	-14186
▁Archimedes	-14187
▁Architects	-14188
▁Depression	-14189
▁Experience	-14190
▁Expressing	-14191
▁Formidable	-14192
▁Heinemeier	-14193
▁Individual	-14194
▁Inequality	-14195
▁McMansions	-14196
▁Originally	-14197
▁Popularity	-14198
▁Successful	-14199
▁Valuations	-14200
▁Virtumundo	-14201
▁aberration	-14202
▁accessible	-14203
▁addictions	-14204
▁administer	-14205
▁admittedly	-14206
▁advocating	-14207
▁affiliates	-14208
▁afflicting	-14209
▁antibodies	-14210
▁arithmetic	-14211
▁associates	-14212
▁asymmetric	-14213
▁attachment	-14214
▁attracting	-14215
▁beneficial	-14216
▁boundaries	-14217
▁brainstorm	-14218
▁capacities	-14219
▁censorship	-14220
▁classified	-14221
▁collateral	-14222
▁commission	-14223
▁compulsion	-14224
▁compulsive	-14225
▁concealing	-14226
▁connecting	-14227
▁copyrights	-14228
▁culturally	-14229
▁dealmakers	-14230
▁delighting	-14231
▁delimiters	-14232
▁descending	-14233
▁dimensions	-14234
▁diminished	-14235
▁discarding	-14236
▁discerning	-14237
▁discomfort	-14238
▁displaying	-14239
▁economical	-14240
▁economists	-14241
▁editorials	-14242
▁eighteenth	-14243
▁embodiment	-14244
▁encounters	-14245
▁estimating	-14246
▁euphemisms	-14247
▁externally	-14248
▁extremists	-14249
▁fastidious	-14250
▁fierceness	-14251
▁forbidding	-14252
▁forgetting	-14253
▁forseeable	-14254
▁fragmented	-14255
▁frustrated	-14256
▁hospitable	-14257
▁households	-14258
▁impersonal	-14259
▁inadequate	-14260
▁indicators	-14261
▁inflexible	-14262
▁inheriting	-14263
▁installing	-14264
▁integrated	-14265
▁liberating	-14266
▁limitation	-14267
▁loneliness	-14268
▁mainframes	-14269
▁manuscript	-14270
▁materially	-14271
▁methodical	-14272
▁motivating	-14273
▁multiplier	-14274
▁noticeable	-14275
▁noticeably	-14276
▁obsessions	-14277
▁omniscient	-14278
▁outrageous	-14279
▁outweighed	-14280
▁overloaded	-14281
▁overvalued	-14282
▁parameters	-14283
▁patentable	-14284
▁perfection	-14285
▁peripheral	-14286
▁prevalence	-14287
▁prewritten	-14288
▁propaganda	-14289
▁propagates	-14290
▁prosperous	-14291
▁psychology	-14292
▁recognizes	-14293
▁reflection	-14294
▁reinvented	-14295
▁sanctioned	-14296
▁specialize	-14297
▁stunningly	-14298
▁submitting	-14299
▁subroutine	-14300
▁succession	-14301
▁superseded	-14302
▁telephones	-14303
▁television	-14304
▁unbearably	-14305
▁undervalue	-14306
▁unfinished	-14307
▁unforeseen	-14308
▁unorthodox	-14309
▁upbringing	-14310
▁vigorously	-14311
▁whitelists	-14312
AndBreakfast	-14313
centeredness	-14314
distribution	-14315
▁Affectation	-14316
▁Albuquerque	-14317
▁Association	-14318
▁Blecharczyk	-14319
▁Bureaucrats	-14320
▁Competition	-14321
▁Distraction	-14322
▁Kickstarter	-14323
▁Monroeville	-14324
[...]
