<pad>	0
<s>	0
</s>	0
<unk>	0
▁a	-0
in	-1
th	-2
nd	-3
es	-4
ing	-5
re	-6
▁and	-7
on	-8
▁t	-9
er	-10
▁s	-11
at	-12
ou	-13
▁c	-14
ers	-15
▁h	-16
▁th	-17
ea	-18
et	-19
en	-20
it	-21
▁S	-22
▁b	-23
▁o	-24
▁to	-25
ct	-26
el	-27
▁p	-28
▁w	-29
an	-30
ank	-31
anket	-32
▁Sanket	-33
ay	-34
ow	-35
rn	-36
▁f	-37
▁g	-38
▁oth	-39
▁others	-40
al	-41
ic	-42
is	-43
ly	-44
▁l	-45
ess	-46
▁st	-47
reat	-48
le	-49
od	-50
ve	-51
▁d	-52
▁e	-53
▁m	-54
▁the	-55
ai	-56
or	-57
un	-58
▁y	-59
ood	-60
▁sh	-61
▁tr	-62
▁you	-63
om	-64
ity	-65
ak	-66
ar	-67
ch	-68
gh	-69
ld	-70
op	-71
ro	-72
ui	-73
▁E	-74
▁n	-75
▁r	-76
ati	-77
esp	-78
est	-79
ith	-80
ons	-81
ows	-82
▁is	-83
earn	-84
▁act	-85
▁hon	-86
▁tru	-87
▁with	-88
▁learn	-89
▁honest	-90
▁H	-91
▁k	-92
ind	-93
ter	-94
ven	-95
▁al	-96
▁are	-97
▁kind	-98
Do	-99
ed	-100
mp	-101
ng	-102
og	-103
ol	-104
pp	-105
ps	-106
ta	-107
▁G	-108
▁P	-109
▁u	-110
ake	-111
ble	-112
eak	-113
ect	-114
eop	-115
ght	-116
ics	-117
ies	-118
ist	-119
ive	-120
mun	-121
one	-122
out	-123
▁Do	-124
▁in	-125
airn	-126
ally	-127
ness	-128
ngth	-129
peak	-130
tand	-131
▁Eth	-132
▁bet	-133
▁bui	-134
▁com	-135
▁und	-136
eople	-137
▁Good	-138
▁good	-139
▁resp	-140
▁stay	-141
▁stre	-142
▁Doing	-143
▁creat	-144
▁shows	-145
airness	-146
erstand	-147
reating	-148
▁Ethics	-149
▁better	-150
▁commun	-151
▁honesty	-152
▁kindness	-153
▁learning	-154
▁strength	-155
▁understand	-156
fu	-157
iv	-158
▁I	-159
▁T	-160
ave	-161
ays	-162
com	-163
elf	-164
ful	-165
▁mo	-166
ways	-167
▁Hel	-168
▁day	-169
▁even	-170
▁always	-171
Be	-172
ad	-173
as	-174
ce	-175
de	-176
ec	-177
ee	-178
ef	-179
eg	-180
ev	-181
ew	-182
fl	-183
gn	-184
hi	-185
ib	-186
id	-187
ir	-188
jo	-189
lt	-190
ms	-191
ns	-192
os	-193
pl	-194
qu	-195
ri	-196
sp	-197
st	-198
tu	-199
um	-200
ys	-201
▁F	-202
▁M	-203
▁R	-204
▁v	-205
ach	-206
air	-207
all	-208
alm	-209
alu	-210
ard	-211
are	-212
ary	-213
ath	-214
att	-215
chn	-216
ead	-217
eas	-218
eds	-219
eel	-220
efo	-221
egr	-222
eli	-223
ent	-224
ery	-225
fli	-226
hen	-227
ias	-228
ice	-229
ign	-230
imp	-231
ink	-232
ite	-233
lds	-234
nec	-235
ogy	-236
ong	-237
oon	-238
ope	-239
ort	-240
ous	-241
own	-242
rel	-243
rou	-244
row	-245
tiv	-246
uri	-247
utu	-248
vem	-249
xpl	-250
▁Be	-251
▁ah	-252
▁de	-253
▁en	-254
▁ev	-255
▁id	-256
▁it	-257
▁no	-258
▁on	-259
▁ri	-260
▁sm	-261
▁te	-262
▁un	-263
aily	-264
akes	-265
atch	-266
ated	-267
athy	-268
eans	-269
elps	-270
ence	-271
eves	-272
hips	-273
ibly	-274
ings	-275
ions	-276
ires	-277
joys	-278
lows	-279
ogic	-280
orld	-281
osit	-282
ould	-283
ping	-284
ppro	-285
rong	-286
tegr	-287
uide	-288
unit	-289
vent	-290
ward	-291
▁Emp	-292
▁car	-293
▁con	-294
▁equ	-295
▁for	-296
▁hum	-297
▁new	-298
▁one	-299
▁opp	-300
▁out	-301
▁pol	-302
▁pre	-303
▁pro	-304
▁rel	-305
almly	-306
alues	-307
ation	-308
blems	-309
chnol	-310
comes	-311
efore	-312
ening	-313
erson	-314
flict	-315
impro	-316
oring	-317
ought	-318
rough	-319
uture	-320
▁Mist	-321
▁Pati	-322
▁Resp	-323
▁beli	-324
▁bias	-325
▁care	-326
▁curi	-327
▁dign	-328
▁expl	-329
▁fair	-330
▁feel	-331
▁grow	-332
▁have	-333
▁hope	-334
▁insp	-335
▁list	-336
▁make	-337
▁matt	-338
▁nice	-339
▁self	-340
▁they	-341
▁true	-342
▁when	-343
ations	-344
eryone	-345
essary	-346
vement	-347
▁Being	-348
▁Speak	-349
▁ahead	-350
▁appro	-351
▁built	-352
▁daily	-353
▁deeds	-354
▁great	-355
▁guide	-356
▁helps	-357
▁ideas	-358
▁logic	-359
▁means	-360
▁motiv	-361
▁posit	-362
▁right	-363
▁shown	-364
▁small	-365
▁speak	-366
▁thing	-367
▁think	-368
▁tries	-369
▁trust	-370
▁truth	-371
▁unnec	-372
▁watch	-373
▁world	-374
ication	-375
onsibly	-376
ortunit	-377
tegrity	-378
▁People	-379
▁active	-380
▁allows	-381
▁before	-382
▁builds	-383
▁calmly	-384
▁caring	-385
▁create	-386
▁enjoys	-387
▁future	-388
▁humble	-389
▁people	-390
▁person	-391
▁polite	-392
▁should	-393
▁strong	-394
▁toward	-395
▁values	-396
chnology	-397
oughtful	-398
▁Empathy	-399
▁Helping	-400
▁Respect	-401
▁actions	-402
▁creates	-403
▁curious	-404
▁dignity	-405
▁equally	-406
▁matters	-407
▁prevent	-408
▁respect	-409
▁through	-410
▁without	-411
▁Fairness	-412
▁Mistakes	-413
▁Patience	-414
▁Speaking	-415
▁Treating	-416
▁approach	-417
▁believes	-418
▁conflict	-419
▁everyone	-420
▁fairness	-421
▁feelings	-422
▁inspires	-423
▁outcomes	-424
▁problems	-425
▁treating	-426
▁watching	-427
ationships	-428
ortunities	-429
▁community	-430
▁exploring	-431
▁integrity	-432
▁listening	-433
▁logically	-434
▁motivated	-435
improvement	-436
▁technology	-437
▁thoughtful	-438
▁responsibly	-439
▁unnecessary	-440
▁communication	-441
▁opportunities	-442
▁relationships	-443
▁understanding	-444
ac	-445
by	-446
ga	-447
il	-448
im	-449
lo	-450
rs	-451
▁W	-452
ack	-453
bye	-454
day	-455
ere	-456
hat	-457
ime	-458
lad	-459
led	-460
odu	-461
ond	-462
▁Hi	-463
▁af	-464
▁of	-465
▁pr	-466
come	-467
gain	-468
noon	-469
▁See	-470
▁Wel	-471
▁fil	-472
▁had	-473
▁how	-474
▁see	-475
ctive	-476
erful	-477
ivity	-478
rning	-479
rself	-480
▁Have	-481
▁Take	-482
▁back	-483
▁chat	-484
▁glad	-485
▁here	-486
▁soon	-487
▁take	-488
▁time	-489
▁wond	-490
▁Hello	-491
▁after	-492
▁again	-493
▁produ	-494
▁there	-495
▁today	-496
▁filled	-497
▁Goodbye	-498
▁Welcome	-499
▁evening	-500
▁morning	-501
▁positive	-502
▁yourself	-503
▁afternoon	-504
▁wonderful	-505
▁positivity	-506
▁productive	-507
Em	-508
Et	-509
Fa	-510
Go	-511
Ha	-512
He	-513
Hi	-514
Mi	-515
Pa	-516
Pe	-517
Re	-518
Sa	-519
Se	-520
Sp	-521
Ta	-522
Tr	-523
We	-524
af	-525
ag	-526
ah	-527
ap	-528
av	-529
ba	-530
be	-531
bi	-532
bl	-533
bu	-534
ca	-535
ck	-536
co	-537
cr	-538
cs	-539
cu	-540
da	-541
db	-542
di	-543
dn	-544
ds	-545
du	-546
ei	-547
em	-548
eo	-549
eq	-550
ex	-551
ey	-552
fa	-553
fe	-554
fi	-555
fo	-556
ft	-557
gi	-558
gl	-559
go	-560
gr	-561
gs	-562
gt	-563
gu	-564
gy	-565
ha	-566
he	-567
hn	-568
ho	-569
hr	-570
ht	-571
hu	-572
hy	-573
ia	-574
ie	-575
ig	-576
io	-577
ip	-578
ke	-579
ki	-580
la	-581
lc	-582
lf	-583
li	-584
ll	-585
lm	-586
lp	-587
lu	-588
lw	-589
ma	-590
mb	-591
me	-592
ml	-593
mm	-594
mo	-595
mu	-596
nc	-597
ne	-598
nf	-599
ni	-600
nj	-601
nk	-602
nn	-603
no	-604
nt	-605
oa	-606
ob	-607
of	-608
oi	-609
oo	-610
ot	-611
ov	-612
oy	-613
pa	-614
pe	-615
pi	-616
po	-617
pr	-618
rd	-619
rf	-620
rl	-621
rt	-622
ru	-623
ry	-624
sa	-625
se	-626
sh	-627
si	-628
sm	-629
so	-630
ss	-631
tc	-632
te	-633
tf	-634
ti	-635
to	-636
tr	-637
tt	-638
ty	-639
ua	-640
uc	-641
ue	-642
ug	-643
ul	-644
ur	-645
us	-646
ut	-647
va	-648
vi	-649
wa	-650
wh	-651
wi	-652
wn	-653
wo	-654
ws	-655
xp	-656
ye	-657
yo	-658
▁B	-659
▁D	-660
▁i	-661
Eth	-662
Fai	-663
Hel	-664
Mis	-665
Pat	-666
Res	-667
Tak	-668
Tre	-669
Wel	-670
ain	-671
and	-672
atc	-673
ate	-674
bet	-675
bly	-676
cal	-677
cat	-678
ces	-679
con	-680
cre	-681
cti	-682
dea	-683
din	-684
ean	-685
ear	-686
ech	-687
eed	-688
ein	-689
elc	-690
ell	-691
elp	-692
enc	-693
enj	-694
erf	-695
ern	-696
ett	-697
gic	-698
gre	-699
gth	-700
hea	-701
hin	-702
hon	-703
hou	-704
how	-705
ict	-706
ien	-707
iev	-708
igh	-709
ild	-710
ily	-711
ins	-712
int	-713
ion	-714
iou	-715
ips	-716
irn	-717
iti	-718
joy	-719
kes	-720
ket	-721
kin	-722
lat	-723
lea	-724
lem	-725
lin	-726
lis	-727
lit	-728
lle	-729
log	-730
lor	-731
low	-732
mal	-733
mat	-734
mea	-735
men	-736
mes	-737
mly	-738
mpa	-739
nde	-740
nes	-741
nic	-742
nin	-743
nit	-744
nol	-745
odb	-746
oin	-747
ome	-748
omm	-749
onf	-750
ore	-751
orl	-752
orn	-753
oth	-754
oug	-755
oul	-756
our	-757
ove	-758
pea	-759
per	-760
pin	-761
pir	-762
ple	-763
pon	-764
por	-765
pre	-766
pro	-767
rea	-768
ren	-769
res	-770
rev	-771
rin	-772
rit	-773
roa	-774
rob	-775
rod	-776
ron	-777
sel	-778
sit	-779
son	-780
tak	-781
tay	-782
teg	-783
ten	-784
tes	-785
the	-786
thi	-787
tho	-788
thr	-789
thy	-790
tin	-791
tre	-792
tun	-793
ual	-794
uct	-795
ues	-796
uid	-797
uil	-798
und	-799
unn	-800
ure	-801
uth	-802
val	-803
vat	-804
ver	-805
ves	-806
vit	-807
war	-808
wat	-809
way	-810
yon	-811
you	-812
▁Em	-813
▁Ha	-814
▁Pe	-815
▁Sa	-816
▁Se	-817
▁Sp	-818
▁ac	-819
▁ag	-820
▁an	-821
▁ap	-822
▁ar	-823
▁ba	-824
▁be	-825
▁bi	-826
▁bu	-827
▁ca	-828
▁ch	-829
▁co	-830
▁cu	-831
▁da	-832
▁di	-833
▁eq	-834
▁ex	-835
▁fa	-836
▁fe	-837
▁fi	-838
▁fo	-839
▁fu	-840
▁gl	-841
▁go	-842
▁gr	-843
▁gu	-844
▁ha	-845
▁he	-846
▁ho	-847
▁hu	-848
▁lo	-849
▁ma	-850
▁ne	-851
▁op	-852
▁ou	-853
▁pe	-854
▁po	-855
▁re	-856
▁se	-857
▁so	-858
▁sp	-859
▁ta	-860
▁ti	-861
▁wh	-862
▁wi	-863
▁wo	-864
Good	-865
Mist	-866
Pati	-867
Resp	-868
Take	-869
ates	-870
blem	-871
cess	-872
echn	-873
eeds	-874
eing	-875
enjo	-876
erfu	-877
erst	-878
espe	-879
essa	-880
esty	-881
fter	-882
ghtf	-883
head	-884
hing	-885
ical	-886
icat	-887
idea	-888
ight	-889
ille	-890
indn	-891
itiv	-892
ivat	-893
king	-894
lati	-895
ling	-896
mall	-897
mble	-898
ment	-899
mpro	-900
nder	-901
ndin	-902
ning	-903
nity	-904
oing	-905
olit	-906
olog	-907
omes	-908
ones	-909
onfl	-910
onsh	-911
onsi	-912
oodb	-913
ople	-914
ough	-915
outc	-916
pers	-917
plor	-918
ppor	-919
reng	-920
ring	-921
riou	-922
rity	-923
rnes	-924
rodu	-925
rove	-926
self	-927
spir	-928
tern	-929
ters	-930
ther	-931
thic	-932
thin	-933
thou	-934
ting	-935
ture	-936
uild	-937
unic	-938
very	-939
vity	-940
yone	-941
▁San	-942
▁aga	-943
▁all	-944
▁alw	-945
▁app	-946
▁bac	-947
▁bef	-948
▁bel	-949
▁cal	-950
▁cre	-951
▁dai	-952
▁fai	-953
▁gre	-954
▁gui	-955
▁hel	-956
▁hop	-957
▁ins	-958
▁int	-959
▁kin	-960
▁lea	-961
▁lis	-962
▁log	-963
▁mak	-964
▁mat	-965
▁mea	-966
▁mot	-967
▁nic	-968
▁pos	-969
▁res	-970
▁sel	-971
▁str	-972
▁tak	-973
▁thr	-974
▁tim	-975
▁tod	-976
▁tow	-977
▁tre	-978
▁tri	-979
▁val	-980
▁wat	-981
▁wor	-982
Being	-983
Doing	-984
Fairn	-985
Treat	-986
aring	-987
atien	-988
ating	-989
ching	-990
ecess	-991
elcom	-992
eliev	-993
eling	-994
ersta	-995
espon	-996
essar	-997
etter	-998
ghtfu	-999
gnity	-1000
icati	-1001
ideas	-1002
illed	-1003
istak	-1004
isten	-1005
ithou	-1006
ities	-1007
itive	-1008
mpath	-1009
munic	-1010
nders	-1011
nding	-1012
oduct	-1013
olite	-1014
ology	-1015
ommun	-1016
onder	-1017
onest	-1018
onfli	-1019
onshi	-1020
onsib	-1021
ortun	-1022
pport	-1023
reate	-1024
reven	-1025
rious	-1026
rness	-1027
roach	-1028
roble	-1029
rovem	-1030
thers	-1031
thics	-1032
thing	-1033
tivat	-1034
ually	-1035
umble	-1036
unity	-1037
unnec	-1038
xplor	-1039
▁Hell	-1040
▁Help	-1041
▁Peop	-1042
▁Sank	-1043
▁acti	-1044
▁befo	-1045
▁buil	-1046
▁calm	-1047
▁enjo	-1048
▁futu	-1049
▁morn	-1050
▁peop	-1051
▁pers	-1052
▁shou	-1053
▁show	-1054
▁thin	-1055
▁thou	-1056
▁trus	-1057
▁valu	-1058
▁your	-1059
atters	-1060
eaking	-1061
eeling	-1062
egrity	-1063
elcome	-1064
espect	-1065
espons	-1066
ghtful	-1067
ically	-1068
ignity	-1069
mpathy	-1070
munity	-1071
necess	-1072
ositiv	-1073
outcom	-1074
qually	-1075
reates	-1076
relati	-1077
rength	-1078
revent	-1079
spires	-1080
urious	-1081
vening	-1082
▁Goodb	-1083
▁build	-1084
▁every	-1085
▁fairn	-1086
▁kindn	-1087
▁techn	-1088
▁throu	-1089
▁treat	-1090
▁yours	-1091
atching	-1092
atience	-1093
earning	-1094
eelings	-1095
elieves	-1096
istakes	-1097
onships	-1098
ositive	-1099
peaking	-1100
pproach	-1101
tanding	-1102
ternoon	-1103
tivated	-1104
unities	-1105
▁Goodby	-1106
▁confli	-1107
▁integr	-1108
▁opport	-1109
▁outcom	-1110
▁proble	-1111
▁relati	-1112
▁unders	-1113
▁withou	-1114
Fairness	-1115
Treating	-1116
improvem	-1117
istening	-1118
oductive	-1119
ogically	-1120
onderful	-1121
xploring	-1122
▁positiv	-1123
▁respons	-1124
▁technol	-1125
▁thought	-1126
necessary	-1127
▁communic	-1128
erstanding	-1129
▁relations	-1130
▁opportunit	-1131
▁	-1132
e	-1133
t	-1134
n	-1135
a	-1136
o	-1137
s	-1138
i	-1139
r	-1140
h	-1141
d	-1142
l	-1143
g	-1144
u	-1145
c	-1146
y	-1147
p	-1148
.	-1149
m	-1150
w	-1151
k	-1152
f	-1153
v	-1154
b	-1155
,	-1156
S	-1157
E	-1158
’	-1159
H	-1160
D	-1161
G	-1162
P	-1163
I	-1164
T	-1165
-	-1166
B	-1167
F	-1168
M	-1169
R	-1170
j	-1171
q	-1172
x	-1173
?	-1174
W	-1175
