<pad>	0
<s>	0
</s>	0
<unk>	0
on	-0
in	-1
es	-2
ti	-3
st	-4
tion	-5
se	-6
ction	-7
▁a	-8
ru	-9
▁R	-10
stru	-11
▁I	-12
la	-13
▁In	-14
struction	-15
esp	-16
espon	-17
esponse	-18
▁Response	-19
▁Instruction	-20
er	-21
at	-22
▁t	-23
ing	-24
re	-25
▁E	-26
pla	-27
▁Ex	-28
plain	-29
▁Explain	-30
or	-31
▁c	-32
▁p	-33
en	-34
▁d	-35
is	-36
▁s	-37
ra	-38
▁m	-39
▁is	-40
ro	-41
▁in	-42
▁f	-43
▁o	-44
le	-45
it	-46
al	-47
▁to	-48
ut	-49
▁u	-50
hat	-51
▁co	-52
ch	-53
el	-54
ata	-55
▁pro	-56
em	-57
an	-58
et	-59
ic	-60
▁W	-61
▁What	-62
▁data	-63
▁A	-64
ar	-65
ur	-66
▁b	-67
ation	-68
▁w	-69
▁th	-70
▁com	-71
ct	-72
ed	-73
lo	-74
▁n	-75
▁the	-76
gra	-77
▁an	-78
▁of	-79
ce	-80
od	-81
put	-82
ent	-83
▁sy	-84
ag	-85
ces	-86
stem	-87
▁system	-88
ine	-89
▁le	-90
▁tra	-91
▁h	-92
sed	-93
▁int	-94
wa	-95
ach	-96
▁re	-97
gram	-98
ware	-99
arn	-100
ers	-101
▁learn	-102
▁program	-103
as	-104
▁de	-105
▁con	-106
▁comput	-107
iz	-108
▁la	-109
▁so	-110
▁for	-111
▁mod	-112
ft	-113
ig	-114
▁v	-115
low	-116
cess	-117
▁learning	-118
ck	-119
ns	-120
ul	-121
▁and	-122
ftware	-123
▁model	-124
de	-125
ry	-126
▁C	-127
▁e	-128
ect	-129
ser	-130
▁al	-131
▁mach	-132
il	-133
etw	-134
ion	-135
ork	-136
▁on	-137
▁used	-138
ss	-139
▁D	-140
for	-141
ure	-142
▁st	-143
▁train	-144
▁software	-145
gu	-146
age	-147
ity	-148
per	-149
▁en	-150
ming	-151
ures	-152
▁pre	-153
▁allow	-154
▁systems	-155
ow	-156
th	-157
un	-158
▁S	-159
▁l	-160
ken	-161
ngu	-162
ryp	-163
form	-164
▁code	-165
▁cont	-166
etwork	-167
▁langu	-168
▁machine	-169
▁programming	-170
ab	-171
▁T	-172
ines	-173
▁network	-174
ir	-175
ly	-176
qu	-177
um	-178
▁P	-179
ack	-180
fic	-181
ith	-182
ral	-183
▁un	-184
▁token	-185
▁allows	-186
▁language	-187
id	-188
ri	-189
▁H	-190
cur	-191
ple	-192
res	-193
ver	-194
▁ac	-195
▁us	-196
ages	-197
emor	-198
▁dev	-199
ctions	-200
▁process	-201
▁training	-202
ds	-203
im	-204
om	-205
ts	-206
▁M	-207
all	-208
inu	-209
ter	-210
tic	-211
▁me	-212
▁sa	-213
▁se	-214
▁we	-215
ence	-216
ulti	-217
▁are	-218
▁how	-219
ating	-220
emory	-221
▁into	-222
struct	-223
di	-224
ec	-225
eu	-226
pl	-227
us	-228
ain	-229
ell	-230
▁ar	-231
▁or	-232
ance	-233
cryp	-234
ment	-235
▁per	-236
▁inter	-237
▁multi	-238
▁struct	-239
cryption	-240
▁computing	-241
bj	-242
cy	-243
me	-244
op	-245
▁B	-246
▁F	-247
▁G	-248
▁L	-249
▁k	-250
ate	-251
esc	-252
fer	-253
her	-254
ist	-255
rib	-256
ual	-257
▁HT	-258
▁by	-259
▁fa	-260
lass	-261
sion	-262
▁web	-263
bject	-264
ering	-265
▁oper	-266
▁trans	-267
▁using	-268
ization	-269
▁memory	-270
▁perform	-271
▁multiple	-272
▁operating	-273
to	-274
ub	-275
ug	-276
vi	-277
alu	-278
and	-279
ies	-280
ous	-281
rom	-282
set	-283
ula	-284
▁An	-285
▁ad	-286
▁ex	-287
▁fi	-288
▁sp	-289
ices	-290
urce	-291
▁fun	-292
▁man	-293
▁neu	-294
▁rec	-295
▁ser	-296
ility	-297
▁comm	-298
▁from	-299
▁meas	-300
▁class	-301
▁neural	-302
▁object	-303
▁measures	-304
▁networks	-305
▁structure	-306
▁encryption	-307
PU	-308
TP	-309
ad	-310
ca	-311
ep	-312
ex	-313
ol	-314
der	-315
end	-316
ext	-317
hen	-318
ial	-319
ize	-320
ore	-321
ust	-322
▁ap	-323
▁at	-324
▁ba	-325
▁po	-326
▁ru	-327
elop	-328
ting	-329
▁det	-330
▁num	-331
▁pat	-332
ision	-333
terns	-334
▁HTTP	-335
▁user	-336
▁what	-337
▁with	-338
ication	-339
▁access	-340
▁models	-341
▁source	-342
▁tokens	-343
elopment	-344
▁dataset	-345
▁computer	-346
▁patterns	-347
▁computers	-348
▁development	-349
ey	-350
ge	-351
if	-352
oc	-353
ph	-354
▁O	-355
▁g	-356
ask	-357
gor	-358
igh	-359
irt	-360
its	-361
lab	-362
net	-363
rol	-364
tiv	-365
▁So	-366
▁be	-367
▁lo	-368
ases	-369
ates	-370
gine	-371
ific	-372
rect	-373
uman	-374
▁aut	-375
ellig	-376
rypto	-377
tific	-378
▁Data	-379
▁appl	-380
▁desc	-381
▁exec	-382
▁fast	-383
▁stor	-384
inuous	-385
irtual	-386
▁human	-387
▁input	-388
▁conver	-389
▁engine	-390
tificial	-391
▁control	-392
▁intellig	-393
▁functions	-394
▁engineering	-395
Is	-396
ML	-397
du	-398
mb	-399
ms	-400
po	-401
▁J	-402
▁U	-403
PIs	-404
ard	-405
ash	-406
edd	-407
ety	-408
fit	-409
ges	-410
led	-411
met	-412
ncy	-413
oes	-414
ont	-415
ors	-416
pro	-417
ten	-418
▁Py	-419
▁as	-420
▁ch	-421
▁ev	-422
▁oc	-423
▁pa	-424
▁qu	-425
▁sm	-426
▁ti	-427
able	-428
chit	-429
dres	-430
fety	-431
ging	-432
ical	-433
ides	-434
igit	-435
inux	-436
ples	-437
rain	-438
ther	-439
uper	-440
uted	-441
▁CPU	-442
▁Git	-443
▁cor	-444
▁def	-445
▁dur	-446
▁fir	-447
▁key	-448
▁res	-449
▁run	-450
acket	-451
alues	-452
curre	-453
dient	-454
dress	-455
vices	-456
vised	-457
▁APIs	-458
▁Rust	-459
▁dist	-460
▁does	-461
▁hard	-462
▁line	-463
▁same	-464
▁size	-465
▁time	-466
cision	-467
ecture	-468
gorith	-469
igital	-470
▁Linux	-471
▁occur	-472
▁pages	-473
▁predi	-474
▁small	-475
▁stack	-476
ability	-477
ference	-478
fitting	-479
▁archit	-480
▁commun	-481
▁during	-482
▁safety	-483
▁stores	-484
▁values	-485
currency	-486
▁address	-487
▁correct	-488
▁defines	-489
▁descent	-490
▁distrib	-491
upervised	-492
▁Software	-493
▁hardware	-494
▁machines	-495
structions	-496
▁application	-497
▁performance	-498
▁predictions	-499
▁architecture	-500
▁instructions	-501
▁intelligence	-502
ni	-503
og	-504
ot	-505
pd	-506
pe	-507
ps	-508
▁V	-509
ber	-510
cks	-511
eat	-512
ech	-513
een	-514
eng	-515
gan	-516
hor	-517
ign	-518
ind	-519
lan	-520
lel	-521
les	-522
lic	-523
our	-524
phy	-525
por	-526
pre	-527
row	-528
sit	-529
uil	-530
ull	-531
ult	-532
▁Ac	-533
▁IP	-534
▁Re	-535
▁Th	-536
▁di	-537
▁id	-538
▁im	-539
▁ro	-540
▁sc	-541
▁sh	-542
asks	-543
atch	-544
atic	-545
ects	-546
ener	-547
enti	-548
ents	-549
here	-550
ient	-551
ings	-552
ized	-553
izer	-554
izes	-555
ocab	-556
plex	-557
ribe	-558
ross	-559
utes	-560
vers	-561
yers	-562
▁can	-563
▁clo	-564
▁cre	-565
▁dep	-566
▁gra	-567
▁lab	-568
▁mon	-569
▁nod	-570
▁one	-571
▁sca	-572
▁spe	-573
▁tes	-574
▁upd	-575
▁use	-576
anges	-577
bases	-578
ength	-579
ether	-580
mples	-581
ublic	-582
ulary	-583
vides	-584
▁Cont	-585
▁Desc	-586
▁betw	-587
▁buil	-588
▁each	-589
▁form	-590
▁loss	-591
▁many	-592
▁over	-593
▁poin	-594
▁read	-595
▁redu	-596
▁step	-597
▁text	-598
▁that	-599
▁uses	-600
▁when	-601
▁work	-602
atical	-603
erical	-604
ersion	-605
graphy	-606
hentic	-607
ources	-608
rallel	-609
▁atten	-610
▁balan	-611
▁based	-612
▁evalu	-613
▁first	-614
▁gener	-615
▁organ	-616
▁other	-617
▁shell	-618
▁store	-619
▁tasks	-620
▁under	-621
▁vocab	-622
▁where	-623
▁across	-624
▁crypto	-625
▁identi	-626
▁inform	-627
▁layers	-628
▁length	-629
▁number	-630
▁occurs	-631
▁packet	-632
▁trains	-633
▁between	-634
▁changes	-635
▁complex	-636
▁contain	-637
▁devices	-638
▁digital	-639
▁manages	-640
▁objects	-641
▁updates	-642
▁virtual	-643
ification	-644
▁Describe	-645
▁algorith	-646
▁converts	-647
▁gradient	-648
▁interpre	-649
▁transfer	-650
▁attention	-651
▁numerical	-652
▁precision	-653
▁resources	-654
▁tokenizer	-655
▁artificial	-656
▁continuous	-657
▁evaluation	-658
▁vocabulary	-659
▁computation	-660
▁distributed	-661
▁information	-662
▁applications	-663
CP	-664
DP	-665
ES	-666
NS	-667
ON	-668
QL	-669
SS	-670
Sc	-671
YA	-672
av	-673
bo	-674
cu	-675
ha	-676
ip	-677
lf	-678
li	-679
pt	-680
si	-681
ud	-682
ve	-683
▁K	-684
▁N	-685
▁r	-686
EST	-687
Hub	-688
SON	-689
Tor	-690
aSc	-691
ace	-692
ads	-693
aly	-694
ant	-695
ary	-696
atu	-697
bug	-698
cem	-699
dic	-700
ely	-701
emb	-702
ens	-703
erm	-704
ern	-705
err	-706
eue	-707
ful	-708
ice	-709
ify	-710
ils	-711
ink	-712
ism	-713
ler	-714
loy	-715
lym	-716
mis	-717
mut	-718
now	-719
ock	-720
omm	-721
orF	-722
ost	-723
pag	-724
par	-725
pen	-726
pil	-727
ray	-728
rew	-729
ric	-730
tiz	-731
ugh	-732
vel	-733
vis	-734
war	-735
wid	-736
wit	-737
▁Ar	-738
▁De	-739
▁En	-740
▁Po	-741
▁YA	-742
▁it	-743
▁vi	-744
▁wh	-745
caps	-746
chan	-747
chas	-748
ched	-749
cing	-750
ckch	-751
cura	-752
cure	-753
egra	-754
eled	-755
ffic	-756
fies	-757
fter	-758
gres	-759
havi	-760
icro	-761
ight	-762
igns	-763
imen	-764
ipel	-765
ists	-766
itor	-767
lows	-768
lust	-769
mbly	-770
mmet	-771
nown	-772
odel	-773
ogni	-774
oken	-775
orph	-776
poch	-777
ques	-778
ript	-779
task	-780
ters	-781
thon	-782
tics	-783
ties	-784
uber	-785
ular	-786
uter	-787
yper	-788
▁Aut	-789
▁Big	-790
▁CSS	-791
▁Com	-792
▁DNS	-793
▁Emb	-794
▁GPU	-795
▁Jav	-796
▁Mon	-797
▁Pro	-798
▁Rec	-799
▁SQL	-800
▁TCP	-801
▁UDP	-802
▁ass	-803
▁bin	-804
▁bug	-805
▁cal	-806
▁col	-807
▁emb	-808
▁err	-809
▁fix	-810
▁foc	-811
▁fol	-812
▁inv	-813
▁low	-814
▁not	-815
▁out	-816
▁pop	-817
▁set	-818
▁sim	-819
▁tog	-820
▁tun	-821
▁ver	-822
Torch	-823
ables	-824
ality	-825
antiz	-826
ching	-827
ected	-828
edded	-829
eling	-830
ernel	-831
herit	-832
icate	-833
ights	-834
ignat	-835
indow	-836
infor	-837
ingle	-838
inked	-839
ithic	-840
mware	-841
netes	-842
ocker	-843
omaly	-844
piler	-845
ramet	-846
reads	-847
rough	-848
sists	-849
sites	-850
sitiv	-851
tects	-852
uling	-853
ution	-854
wards	-855
width	-856
▁Bash	-857
▁HTML	-858
▁JSON	-859
▁Mach	-860
▁REST	-861
▁Tens	-862
▁YAML	-863
▁adds	-864
▁back	-865
▁brow	-866
▁deep	-867
▁dete	-868
▁feat	-869
▁file	-870
▁full	-871
▁host	-872
▁inst	-873
▁list	-874
▁mean	-875
▁node	-876
▁prob	-877
▁rele	-878
▁sequ	-879
▁spec	-880
▁swit	-881
aching	-882
atural	-883
botics	-884
cement	-885
cessed	-886
curacy	-887
havior	-888
iented	-889
liable	-890
lockch	-891
ommend	-892
orFlow	-893
propag	-894
rewall	-895
sembly	-896
ternet	-897
tional	-898
visors	-899
▁HTTPS	-900
▁Kuber	-901
▁Model	-902
▁Train	-903
▁after	-904
▁array	-905
▁autom	-906
▁batch	-907
▁epoch	-908
▁known	-909
▁level	-910
▁order	-911
▁pipel	-912
▁queue	-913
▁recor	-914
▁sched	-915
▁score	-916
▁speed	-917
▁toler	-918
▁units	-919
▁users	-920
aScript	-921
bugging	-922
capsula	-923
cessing	-924
chastic	-925
ctional	-926
cursion	-927
ermines	-928
formers	-929
icroser	-930
itoring	-931
loyment	-932
lymorph	-933
mission	-934
mmetric	-935
olithic	-936
sitives	-937
tasking	-938
▁Comput	-939
▁Crypto	-940
▁Docker	-941
▁GitHub	-942
▁Memory	-943
▁Python	-944
▁Things	-945
▁binary	-946
▁builds	-947
▁called	-948
▁device	-949
▁format	-950
▁intera	-951
▁kernel	-952
▁linked	-953
▁points	-954
▁predic	-955
▁prepro	-956
▁public	-957
▁recall	-958
▁router	-959
▁scalab	-960
▁secure	-961
▁server	-962
▁signat	-963
▁single	-964
▁tracks	-965
▁tuning	-966
▁vision	-967
▁window	-968
andwidth	-969
atically	-970
egration	-971
gression	-972
imension	-973
ognition	-974
rameters	-975
tivation	-976
▁Machine	-977
▁PyTorch	-978
▁Virtual	-979
▁assigns	-980
▁browser	-981
▁command	-982
▁context	-983
▁convert	-984
▁follows	-985
▁packets	-986
▁popular	-987
▁samples	-988
▁servers	-989
▁smaller	-990
▁testing	-991
▁through	-992
▁trained	-993
▁underst	-994
▁version	-995
▁weights	-996
heritance	-997
lockchain	-998
lustering	-999
▁Internet	-1000
▁Training	-1001
▁behavior	-1002
▁compiler	-1003
▁consists	-1004
▁controls	-1005
▁executes	-1006
▁firewall	-1007
▁labeling	-1008
▁notation	-1009
▁oriented	-1010
▁parallel	-1011
▁performs	-1012
▁programs	-1013
▁protects	-1014
▁provides	-1015
▁readable	-1016
▁services	-1017
▁specific	-1018
▁together	-1019
▁websites	-1020
antization	-1021
horization	-1022
lymorphism	-1023
mutability	-1024
ypervisors	-1025
▁Inference	-1026
▁addresses	-1027
▁algorithm	-1028
▁authentic	-1029
▁balancing	-1030
▁container	-1031
▁databases	-1032
▁detection	-1033
▁execution	-1034
▁inference	-1035
▁languages	-1036
▁organizes	-1037
▁pipelines	-1038
▁positives	-1039
▁processed	-1040
▁reduction	-1041
▁switching	-1042
▁tolerance	-1043
capsulation	-1044
inforcement	-1045
nsupervised	-1046
ommendation	-1047
propagation	-1048
▁Artificial	-1049
▁Continuous	-1050
▁JavaScript	-1051
▁Kubernetes	-1052
▁TensorFlow	-1053
▁complexity	-1054
▁deployment	-1055
▁determines	-1056
▁identifies	-1057
▁parameters	-1058
▁processing	-1059
▁scheduling	-1060
▁signatures	-1061
▁structured	-1062
▁structures	-1063
icroservices	-1064
▁communicate	-1065
▁integration	-1066
▁interpreter	-1067
▁recognition	-1068
imensionality	-1069
▁cryptography	-1070
▁transmission	-1071
▁automatically	-1072
▁communication	-1073
▁preprocessing	-1074
AM	-1075
LS	-1076
Qu	-1077
ak	-1078
am	-1079
ax	-1080
ci	-1081
dg	-1082
ew	-1083
hy	-1084
ib	-1085
os	-1086
ou	-1087
pi	-1088
pp	-1089
sw	-1090
ty	-1091
we	-1092
▁y	-1093
ags	-1094
ane	-1095
ara	-1096
ari	-1097
ass	-1098
ath	-1099
ats	-1100
aut	-1101
ced	-1102
col	-1103
con	-1104
cre	-1105
def	-1106
dep	-1107
dge	-1108
ead	-1109
eal	-1110
ear	-1111
eld	-1112
elf	-1113
eli	-1114
ems	-1115
enc	-1116
equ	-1117
ery	-1118
ess	-1119
eth	-1120
gin	-1121
hys	-1122
ich	-1123
ied	-1124
ila	-1125
ily	-1126
ime	-1127
iod	-1128
iqu	-1129
isk	-1130
ite	-1131
lat	-1132
law	-1133
lay	-1134
lve	-1135
med	-1136
nal	-1137
nce	-1138
not	-1139
oad	-1140
olv	-1141
ong	-1142
onl	-1143
ood	-1144
oth	-1145
ove	-1146
pti	-1147
raw	-1148
red	-1149
rge	-1150
rin	-1151
riv	-1152
rou	-1153
spi	-1154
ted	-1155
use	-1156
ype	-1157
▁Al	-1158
▁As	-1159
▁Fa	-1160
▁Im	-1161
▁Pa	-1162
▁Qu	-1163
▁Ro	-1164
▁Sy	-1165
▁Un	-1166
▁ab	-1167
▁ag	-1168
▁ed	-1169
▁fr	-1170
▁te	-1171
▁wr	-1172
ails	-1173
aint	-1174
akes	-1175
ales	-1176
alid	-1177
alls	-1178
ames	-1179
arge	-1180
aten	-1181
axim	-1182
conn	-1183
ctiv	-1184
deos	-1185
dger	-1186
duce	-1187
ecks	-1188
ello	-1189
enal	-1190
face	-1191
fore	-1192
gest	-1193
gins	-1194
ibra	-1195
ilar	-1196
iles	-1197
inds	-1198
ined	-1199
inim	-1200
inue	-1201
iods	-1202
isms	-1203
lapp	-1204
lems	-1205
loud	-1206
only	-1207
plat	-1208
port	-1209
pose	-1210
pres	-1211
ptim	-1212
quir	-1213
rans	-1214
reet	-1215
requ	-1216
ring	-1217
self	-1218
tigu	-1219
ured	-1220
used	-1221
vant	-1222
vide	-1223
▁Con	-1224
▁Fir	-1225
▁Fun	-1226
▁Gra	-1227
▁Log	-1228
▁Pre	-1229
▁RAM	-1230
▁Sca	-1231
▁Spe	-1232
▁Sto	-1233
▁TLS	-1234
▁act	-1235
▁ano	-1236
▁but	-1237
▁des	-1238
▁dif	-1239
▁dig	-1240
▁dom	-1241
▁ele	-1242
▁ens	-1243
▁exa	-1244
▁far	-1245
▁its	-1246
▁log	-1247
▁pur	-1248
▁raw	-1249
▁see	-1250
▁sto	-1251
▁sug	-1252
▁tem	-1253
▁tre	-1254
▁vis	-1255
▁wid	-1256
▁you	-1257
andle	-1258
andom	-1259
arily	-1260
arity	-1261
athem	-1262
bines	-1263
cking	-1264
ealth	-1265
earch	-1266
echni	-1267
ences	-1268
ently	-1269
ethod	-1270
ified	-1271
ifies	-1272
igned	-1273
labor	-1274
lates	-1275
ments	-1276
nects	-1277
olves	-1278
ories	-1279
ously	-1280
pares	-1281
peara	-1282
posit	-1283
ribes	-1284
rinci	-1285
roups	-1286
rowth	-1287
swers	-1288
tency	-1289
tocol	-1290
train	-1291
usual	-1292
vents	-1293
▁Back	-1294
▁Deep	-1295
▁Edge	-1296
▁Feat	-1297
▁Fine	-1298
▁Full	-1299
▁Hash	-1300
▁Load	-1301
▁Open	-1302
▁Over	-1303
▁Poin	-1304
▁Self	-1305
▁Sequ	-1306
▁Time	-1307
▁addi	-1308
▁bits	-1309
▁both	-1310
▁cate	-1311
▁deli	-1312
▁disk	-1313
▁edge	-1314
▁fail	-1315
▁find	-1316
▁fine	-1317
▁flaw	-1318
▁hash	-1319
▁high	-1320
▁keys	-1321
▁last	-1322
▁load	-1323
▁long	-1324
▁mess	-1325
▁move	-1326
▁next	-1327
▁nonl	-1328
▁once	-1329
▁open	-1330
▁pack	-1331
▁pass	-1332
▁phys	-1333
▁plat	-1334
▁priv	-1335
▁rate	-1336
▁rela	-1337
▁runs	-1338
▁self	-1339
▁tags	-1340
▁type	-1341
▁unit	-1342
▁unre	-1343
▁vari	-1344
▁vect	-1345
▁view	-1346
▁well	-1347
ainers	-1348
aining	-1349
atency	-1350
author	-1351
aximum	-1352
change	-1353
curity	-1354
depend	-1355
edding	-1356
encies	-1357
espond	-1358
ferent	-1359
gories	-1360
ibrary	-1361
ightwe	-1362
ingful	-1363
iquely	-1364
ontend	-1365
parate	-1366
quests	-1367
rectly	-1368
roduce	-1369
spired	-1370
ultane	-1371
▁Batch	-1372
▁Class	-1373
▁Cloud	-1374
▁Fault	-1375
▁Greet	-1376
▁Hello	-1377
▁Large	-1378
▁Multi	-1379
▁Token	-1380
▁Trans	-1381
▁Under	-1382
▁brain	-1383
▁build	-1384
▁calls	-1385
▁close	-1386
▁cloud	-1387
▁colle	-1388
▁decre	-1389
▁delay	-1390
▁effic	-1391
▁error	-1392
▁fails	-1393
▁fault	-1394
▁field	-1395
▁files	-1396
▁finds	-1397
▁fixed	-1398
▁focus	-1399
▁frequ	-1400
▁hides	-1401
▁items	-1402
▁large	-1403
▁maint	-1404
▁means	-1405
▁memor	-1406
▁minim	-1407
▁money	-1408
▁names	-1409
▁nodes	-1410
▁optim	-1411
▁penal	-1412
▁query	-1413
▁reuse	-1414
▁rules	-1415
▁scale	-1416
▁solve	-1417
▁space	-1418
▁takes	-1419
▁teach	-1420
▁tests	-1421
▁their	-1422
▁unlab	-1423
▁which	-1424
▁works	-1425
▁write	-1426
actions	-1427
cedures	-1428
ctivity	-1429
defined	-1430
eddings	-1431
lapping	-1432
perties	-1433
portant	-1434
portion	-1435
present	-1436
quiring	-1437
tiguous	-1438
trained	-1439
▁Access	-1440
▁Object	-1441
▁Packet	-1442
▁Public	-1443
▁Random	-1444
▁Recall	-1445
▁Scalab	-1446
▁Source	-1447
▁Speech	-1448
▁actual	-1449
▁agents	-1450
▁before	-1451
▁begins	-1452
▁cannot	-1453
▁checks	-1454
▁closer	-1455
▁depend	-1456
▁digits	-1457
▁divide	-1458
▁domain	-1459
▁epochs	-1460
▁errors	-1461
▁events	-1462
▁faster	-1463
▁fixing	-1464
▁groups	-1465
▁growth	-1466
▁handle	-1467
▁health	-1468
▁humans	-1469
▁images	-1470
▁inputs	-1471
▁itself	-1472
▁ledger	-1473
▁manage	-1474
▁mathem	-1475
▁mechan	-1476
▁method	-1477
▁modify	-1478
▁princi	-1479
▁record	-1480
▁scales	-1481
▁serial	-1482
▁speech	-1483
▁spoken	-1484
▁stored	-1485
▁techni	-1486
▁tempor	-1487
▁treats	-1488
▁useful	-1489
▁verify	-1490
▁videos	-1491
▁visual	-1492
▁widely	-1493
▁within	-1494
gorithms	-1495
gramming	-1496
inearity	-1497
laborate	-1498
pearance	-1499
▁Anomaly	-1500
▁Caching	-1501
▁Dataset	-1502
▁Digital	-1503
▁Feature	-1504
▁Latency	-1505
▁Logging	-1506
▁Natural	-1507
▁Network	-1508
▁Process	-1509
▁Threads	-1510
▁Version	-1511
▁ability	-1512
▁actions	-1513
▁anomaly	-1514
▁another	-1515
▁answers	-1516
▁applies	-1517
▁backend	-1518
▁batches	-1519
▁caching	-1520
▁classes	-1521
▁creates	-1522
▁details	-1523
▁divides	-1524
▁enables	-1525
▁ensures	-1526
▁feature	-1527
▁finding	-1528
▁focused	-1529
▁instead	-1530
▁invalid	-1531
▁labeled	-1532
▁latency	-1533
▁learned	-1534
▁library	-1535
▁lightwe	-1536
▁logging	-1537
▁maximum	-1538
▁natural	-1539
▁package	-1540
▁periods	-1541
▁private	-1542
▁purpose	-1543
▁records	-1544
▁reduces	-1545
▁reposit	-1546
▁respond	-1547
▁rewards	-1548
▁secured	-1549
▁similar	-1550
▁storage	-1551
▁suggest	-1552
▁threads	-1553
▁traffic	-1554
▁unusual	-1555
▁vectors	-1556
▁whether	-1557
▁working	-1558
connected	-1559
dependent	-1560
▁Accuracy	-1561
▁Assembly	-1562
▁Computer	-1563
▁Embedded	-1564
▁Firmware	-1565
▁Gradient	-1566
▁Parallel	-1567
▁Pointers	-1568
▁Robotics	-1569
▁Sequence	-1570
▁accuracy	-1571
▁assembly	-1572
▁balances	-1573
▁combines	-1574
▁commonly	-1575
▁connects	-1576
▁continue	-1577
▁creating	-1578
▁creation	-1579
▁delivers	-1580
▁designed	-1581
▁detected	-1582
▁directly	-1583
▁elements	-1584
▁embedded	-1585
▁examples	-1586
▁exchange	-1587
▁executed	-1588
▁failures	-1589
▁features	-1590
▁firmware	-1591
▁forwards	-1592
▁frontend	-1593
▁function	-1594
▁generate	-1595
▁identity	-1596
▁inspired	-1597
▁instance	-1598
▁interact	-1599
▁internal	-1600
▁internet	-1601
▁involves	-1602
▁lowering	-1603
▁messages	-1604
▁minimize	-1605
▁modified	-1606
▁organize	-1607
▁physical	-1608
▁platform	-1609
▁pointers	-1610
▁predicts	-1611
▁prepares	-1612
▁prevents	-1613
▁problems	-1614
▁protocol	-1615
▁releases	-1616
▁relevant	-1617
▁reliable	-1618
▁requests	-1619
▁research	-1620
▁robotics	-1621
▁scalable	-1622
▁securely	-1623
▁security	-1624
▁separate	-1625
▁sequence	-1626
▁tracking	-1627
▁unauthor	-1628
▁uniquely	-1629
▁unstruct	-1630
▁verifies	-1631
▁Authentic	-1632
▁Bandwidth	-1633
▁Computers	-1634
▁Databases	-1635
▁Debugging	-1636
▁Embedding	-1637
▁Precision	-1638
▁Recursion	-1639
▁Symmetric	-1640
▁accessing	-1641
▁bandwidth	-1642
▁correctly	-1643
▁debugging	-1644
▁decreases	-1645
▁describes	-1646
▁different	-1647
▁efficient	-1648
▁generates	-1649
▁important	-1650
▁interface	-1651
▁interpret	-1652
▁introduce	-1653
▁memorizes	-1654
▁optimized	-1655
▁penalties	-1656
▁predicted	-1657
▁processes	-1658
▁recursion	-1659
▁represent	-1660
▁requiring	-1661
▁sequences	-1662
▁simultane	-1663
▁symmetric	-1664
▁unlabeled	-1665
▁variables	-1666
▁Activation	-1667
▁Algorithms	-1668
▁Blockchain	-1669
▁Clustering	-1670
▁Containers	-1671
▁Encryption	-1672
▁Functional	-1673
▁Monitoring	-1674
▁Monolithic	-1675
▁Networking	-1676
▁Regression	-1677
▁Stochastic	-1678
▁Supervised	-1679
▁activation	-1680
▁additional	-1681
▁algorithms	-1682
▁appearance	-1683
▁blockchain	-1684
▁categories	-1685
▁clustering	-1686
▁collection	-1687
▁containers	-1688
▁contiguous	-1689
▁decryption	-1690
▁embeddings	-1691
▁frequently	-1692
▁functional	-1693
▁generating	-1694
▁meaningful	-1695
▁mechanisms	-1696
▁monitoring	-1697
▁monolithic	-1698
▁networking	-1699
▁predefined	-1700
▁pretrained	-1701
▁principles	-1702
▁procedures	-1703
▁programmed	-1704
▁properties	-1705
▁proportion	-1706
▁regression	-1707
▁relational	-1708
▁stochastic	-1709
▁supervised	-1710
▁techniques	-1711
▁translates	-1712
▁understand	-1713
▁understood	-1714
▁unreliable	-1715
▁Concurrency	-1716
▁Hypervisors	-1717
▁Inheritance	-1718
▁Overfitting	-1719
▁Programming	-1720
▁Scalability	-1721
▁collaborate	-1722
▁concurrency	-1723
▁distributes	-1724
▁hypervisors	-1725
▁independent	-1726
▁inheritance	-1727
▁intelligent	-1728
▁lightweight	-1729
▁maintaining	-1730
▁overfitting	-1731
▁overlapping	-1732
▁probability	-1733
▁readability	-1734
▁scalability	-1735
▁temporarily	-1736
▁Cryptography	-1737
▁Immutability	-1738
▁Multitasking	-1739
▁Polymorphism	-1740
▁Quantization	-1741
▁Tokenization	-1742
▁Transformers	-1743
▁Underfitting	-1744
▁Unsupervised	-1745
▁authenticity	-1746
▁computations	-1747
▁dependencies	-1748
▁immutability	-1749
▁mathematical	-1750
▁modification	-1751
▁multitasking	-1752
▁nonlinearity	-1753
▁polymorphism	-1754
▁quantization	-1755
▁repositories	-1756
▁tokenization	-1757
▁transactions	-1758
▁transferring	-1759
▁transformers	-1760
▁unauthorized	-1761
▁underfitting	-1762
▁unstructured	-1763
▁unsupervised	-1764
▁Authorization	-1765
▁Encapsulation	-1766
▁Microservices	-1767
▁Reinforcement	-1768
▁authorization	-1769
▁containerized	-1770
▁encapsulation	-1771
▁interactivity	-1772
▁microservices	-1773
▁reinforcement	-1774
▁serialization	-1775
▁Authentication	-1776
▁Classification	-1777
▁Cryptocurrency	-1778
▁Dimensionality	-1779
▁Recommendation	-1780
▁Virtualization	-1781
▁authentication	-1782
▁classification	-1783
▁cryptocurrency	-1784
▁dimensionality	-1785
▁interconnected	-1786
▁recommendation	-1787
▁simultaneously	-1788
▁virtualization	-1789
▁Backpropagation	-1790
▁backpropagation	-1791
As	-1792
Cr	-1793
DN	-1794
Da	-1795
De	-1796
Do	-1797
Em	-1798
En	-1799
CS	-1800
Ex	-1801
Fa	-1802
Fu	-1803
Gi	-1804
Gr	-1805
HT	-1806
He	-1807
IP	-1808
Im	-1809
In	-1810
JS	-1811
Ja	-1812
Ku	-1813
La	-1814
Li	-1815
Me	-1816
Mi	-1817
Mo	-1818
Mu	-1819
Ov	-1820
PI	-1821
Pa	-1822
Re	-1823
Ru	-1824
So	-1825
Sp	-1826
St	-1827
Sy	-1828
TC	-1829
TM	-1830
Th	-1831
Un	-1832
Ve	-1833
aS	-1834
ac	-1835
af	-1836
aw	-1837
ba	-1838
be	-1839
bl	-1840
cl	-1841
co	-1842
cr	-1843
dd	-1844
do	-1845
dr	-1846
dw	-1847
ea	-1848
eb	-1849
ee	-1850
ef	-1851
eh	-1852
eo	-1853
eq	-1854
ev	-1855
fa	-1856
fl	-1857
gg	-1858
gi	-1859
gr	-1860
he	-1861
hi	-1862
hm	-1863
hr	-1864
hs	-1865
hu	-1866
ia	-1867
ie	-1868
io	-1869
iq	-1870
iv	-1871
je	-1872
ks	-1873
ld	-1874
ll	-1875
ma	-1876
mi	-1877
mp	-1878
nd	-1879
ne	-1880
ng	-1881
nk	-1882
nl	-1883
np	-1884
nr	-1885
nt	-1886
nu	-1887
nv	-1888
ny	-1889
oa	-1890
ob	-1891
oo	-1892
ov	-1893
pa	-1894
pm	-1895
rc	-1896
rd	-1897
rf	-1898
rg	-1899
An	-1900
Bl	-1901
Fe	-1902
Fl	-1903
GP	-1904
Hu	-1905
Lo	-1906
Pu	-1907
Vi	-1908
Wh	-1909
ai	-1910
ap	-1911
ay	-1912
bi	-1913
cc	-1914
cs	-1915
fi	-1916
fo	-1917
gt	-1918
ix	-1919
ls	-1920
lu	-1921
mo	-1922
nh	-1923
oe	-1924
of	-1925
rk	-1926
rl	-1927
rn	-1928
rp	-1929
rr	-1930
rt	-1931
sa	-1932
sh	-1933
sm	-1934
su	-1935
sy	-1936
tH	-1937
ta	-1938
tc	-1939
te	-1940
tf	-1941
tr	-1942
tt	-1943
tu	-1944
tw	-1945
ua	-1946
uc	-1947
uo	-1948
ux	-1949
wh	-1950
wo	-1951
wr	-1952
ws	-1953
wt	-1954
xa	-1955
xe	-1956
xi	-1957
ye	-1958
ym	-1959
yp	-1960
yt	-1961
za	-1962
ze	-1963
▁Y	-1964
▁i	-1965
▁q	-1966
Bat	-1967
Cla	-1968
Dat	-1969
Des	-1970
Git	-1971
Gra	-1972
Gre	-1973
Lat	-1974
Lin	-1975
Nat	-1976
Pro	-1977
Res	-1978
Ten	-1979
ale	-1980
ali	-1981
alt	-1982
ana	-1983
ann	-1984
ans	-1985
any	-1986
are	-1987
arg	-1988
atc	-1989
ati	-1990
att	-1991
avi	-1992
bab	-1993
bas	-1994
bat	-1995
bed	-1996
bes	-1997
bet	-1998
bit	-1999
Ba	-2000
Cl	-2001
Co	-2002
Di	-2003
Fi	-2004
Po	-2005
Py	-2006
RE	-2007
SQ	-2008
Se	-2009
Su	-2010
Te	-2011
Tr	-2012
UD	-2013
br	-2014
fe	-2015
fr	-2016
fu	-2017
gf	-2018
gh	-2019
gn	-2020
go	-2021
gs	-2022
hn	-2023
kc	-2024
lv	-2025
mm	-2026
na	-2027
nf	-2028
nn	-2029
oi	-2030
ok	-2031
oy	-2032
rF	-2033
rs	-2034
rv	-2035
sk	-2036
so	-2037
ue	-2038
ui	-2039
up	-2040
va	-2041
vo	-2042
wi	-2043
xp	-2044
yT	-2045
Flo	-2046
ast	-2047
ble	-2048
bor	-2049
bra	-2050
bro	-2051
but	-2052
cab	-2053
cal	-2054
cat	-2055
cen	-2056
cha	-2057
cin	-2058
cit	-2059
cla	-2060
cor	-2061
cro	-2062
ctu	-2063
cut	-2064
dat	-2065
dds	-2066
ded	-2067
den	-2068
des	-2069
din	-2070
eck	-2071
eer	-2072
eig	-2073
ein	-2074
ela	-2075
ema	-2076
emp	-2077
eni	-2078
erc	-2079
erf	-2080
eri	-2081
erp	-2082
ert	-2083
erv	-2084
esi	-2085
ete	-2086
ets	-2087
fin	-2088
fla	-2089
fro	-2090
gen	-2091
git	-2092
gni	-2093
gro	-2094
gth	-2095
guo	-2096
hin	-2097
his	-2098
hit	-2099
Ac	-2100
Al	-2101
Ed	-2102
Ha	-2103
Na	-2104
Ne	-2105
Ob	-2106
Ro	-2107
TL	-2108
TT	-2109
Ti	-2110
bs	-2111
da	-2112
dl	-2113
dt	-2114
ei	-2115
ff	-2116
ka	-2117
ki	-2118
kp	-2119
pu	-2120
sf	-2121
sl	-2122
sp	-2123
tl	-2124
wn	-2125
xc	-2126
▁Q	-2127
Con	-2128
Hel	-2129
Mod	-2130
Net	-2131
bin	-2132
cap	-2133
che	-2134
ctl	-2135
dle	-2136
ele	-2137
ese	-2138
ger	-2139
hel	-2140
hon	-2141
hre	-2142
hro	-2143
ica	-2144
ien	-2145
ifi	-2146
ile	-2147
imm	-2148
ina	-2149
inc	-2150
inh	-2151
ini	-2152
inp	-2153
ins	-2154
int	-2155
inv	-2156
ire	-2157
ise	-2158
isi	-2159
iss	-2160
isu	-2161
itH	-2162
ita	-2163
itc	-2164
iti	-2165
itt	-2166
ker	-2167
kes	-2168
kin	-2169
lap	-2170
las	-2171
lea	-2172
lem	-2173
len	-2174
lev	-2175
lex	-2176
lig	-2177
lin	-2178
lit	-2179
lla	-2180
lle	-2181
loa	-2182
loc	-2183
lon	-2184
mal	-2185
man	-2186
men	-2187
mer	-2188
min	-2189
mon	-2190
mor	-2191
mun	-2192
nat	-2193
nca	-2194
nel	-2195
ner	-2196
nin	-2197
nit	-2198
nla	-2199
Op	-2200
Pr	-2201
kn	-2202
rw	-2203
Ban	-2204
Fun	-2205
Mic	-2206
Sel	-2207
act	-2208
ang	-2209
ani	-2210
ban	-2211
chn	-2212
del	-2213
ean	-2214
elo	-2215
els	-2216
eta	-2217
fet	-2218
get	-2219
hem	-2220
hes	-2221
ici	-2222
iel	-2223
imp	-2224
ior	-2225
ipl	-2226
kch	-2227
ket	-2228
ned	-2229
nic	-2230
nis	-2231
nom	-2232
non	-2233
nre	-2234
nsa	-2235
nsf	-2236
nst	-2237
nti	-2238
obo	-2239
och	-2240
ocu	-2241
ode	-2242
oft	-2243
oin	-2244
ona	-2245
ond	-2246
one	-2247
oni	-2248
onn	-2249
ono	-2250
onv	-2251
orc	-2252
ord	-2253
org	-2254
ori	-2255
orp	-2256
ort	-2257
orw	-2258
ory	-2259
ose	-2260
oti	-2261
pat	-2262
pea	-2263
pee	-2264
pel	-2265
pin	-2266
plo	-2267
pon	-2268
pos	-2269
que	-2270
rac	-2271
rad	-2272
raf	-2273
ram	-2274
rap	-2275
rar	-2276
rat	-2277
rch	-2278
rea	-2279
ree	-2280
reg	-2281
rel	-2282
ren	-2283
rep	-2284
req	-2285
rip	-2286
rit	-2287
rob	-2288
roc	-2289
rod	-2290
rop	-2291
ror	-2292
ros	-2293
rot	-2294
rov	-2295
rra	-2296
rre	-2297
rst	-2298
rti	-2299
Ra	-2300
To	-2301
eg	-2302
ke	-2303
Blo	-2304
Clo	-2305
Lar	-2306
Pre	-2307
Tra	-2308
cis	-2309
com	-2310
cri	-2311
cte	-2312
cts	-2313
edg	-2314
edu	-2315
eed	-2316
fre	-2317
har	-2318
ict	-2319
log	-2320
los	-2321
lou	-2322
lur	-2323
mat	-2324
ons	-2325
ora	-2326
rog	-2327
ron	-2328
ruc	-2329
rul	-2330
run	-2331
sec	-2332
sef	-2333
sel	-2334
sem	-2335
sep	-2336
seq	-2337
ses	-2338
sic	-2339
sla	-2340
sor	-2341
sse	-2342
ssi	-2343
ste	-2344
sto	-2345
str	-2346
sts	-2347
sur	-2348
tan	-2349
tel	-2350
tes	-2351
tif	-2352
tig	-2353
tin	-2354
tip	-2355
tit	-2356
tor	-2357
tra	-2358
tro	-2359
tse	-2360
uan	-2361
uel	-2362
uer	-2363
ues	-2364
ups	-2365
urc	-2366
urp	-2367
urs	-2368
uta	-2369
ute	-2370
uth	-2371
uti	-2372
uto	-2373
uts	-2374
van	-2375
var	-2376
vat	-2377
ves	-2378
vic	-2379
vid	-2380
vit	-2381
vol	-2382
wal	-2383
win	-2384
wor	-2385
wse	-2386
wth	-2387
xch	-2388
xed	-2389
xim	-2390
xin	-2391
xit	-2392
yer	-2393
you	-2394
yst	-2395
zed	-2396
zer	-2397
zes	-2398
▁AP	-2399
Ar	-2400
mu	-2401
Bas	-2402
Has	-2403
ala	-2404
dow	-2405
dwa	-2406
eas	-2407
ere	-2408
est	-2409
etr	-2410
hod	-2411
hts	-2412
inf	-2413
kag	-2414
mag	-2415
miz	-2416
mwa	-2417
ppl	-2418
rla	-2419
tas	-2420
twa	-2421
uce	-2422
wer	-2423
▁CP	-2424
▁CS	-2425
▁Di	-2426
▁Do	-2427
▁Ed	-2428
▁Em	-2429
▁GP	-2430
▁JS	-2431
▁Ja	-2432
▁Op	-2433
▁Pu	-2434
▁RA	-2435
▁RE	-2436
▁Ra	-2437
▁Ru	-2438
▁Se	-2439
▁St	-2440
▁Su	-2441
▁TL	-2442
▁UD	-2443
▁af	-2444
▁au	-2445
▁bl	-2446
▁bo	-2447
▁bu	-2448
▁ca	-2449
▁cl	-2450
▁cr	-2451
▁do	-2452
▁du	-2453
▁ep	-2454
▁er	-2455
▁fe	-2456
▁fo	-2457
▁fu	-2458
▁ha	-2459
▁he	-2460
▁hi	-2461
▁ho	-2462
▁hy	-2463
▁ke	-2464
▁li	-2465
▁ma	-2466
▁mi	-2467
▁mo	-2468
▁mu	-2469
▁na	-2470
▁ne	-2471
▁no	-2472
▁nu	-2473
▁ob	-2474
▁op	-2475
▁ot	-2476
▁ou	-2477
▁ov	-2478
▁pe	-2479
▁ph	-2480
▁pi	-2481
▁pr	-2482
▁pu	-2483
▁si	-2484
▁su	-2485
▁sw	-2486
▁ta	-2487
▁tu	-2488
▁ty	-2489
▁up	-2490
▁ve	-2491
Cach	-2492
Data	-2493
Fine	-2494
Linu	-2495
Netw	-2496
Over	-2497
Scri	-2498
What	-2499
SO	-2500
ST	-2501
au	-2502
by	-2503
pr	-2504
rm	-2505
Big	-2506
Ful	-2507
Mem	-2508
Mul	-2509
Uns	-2510
anc	-2511
aul	-2512
ckp	-2513
cry	-2514
deo	-2515
eci	-2516
ecu	-2517
eys	-2518
hic	-2519
ide	-2520
lar	-2521
mul	-2522
nsm	-2523
nsu	-2524
orm	-2525
pec	-2526
sig	-2527
▁Ti	-2528
▁vo	-2529
▁wi	-2530
Flow	-2531
adab	-2532
alit	-2533
aliz	-2534
alle	-2535
alth	-2536
alti	-2537
anag	-2538
anis	-2539
aniz	-2540
anti	-2541
aran	-2542
arat	-2543
arch	-2544
ares	-2545
aril	-2546
arit	-2547
ased	-2548
asti	-2549
asur	-2550
atab	-2551
ateg	-2552
atur	-2553
ault	-2554
bedd	-2555
cala	-2556
cces	-2557
cent	-2558
ches	-2559
chni	-2560
city	-2561
cken	-2562
cker	-2563
cket	-2564
cted	-2565
ctor	-2566
ctur	-2567
dent	-2568
dict	-2569
ding	-2570
each	-2571
ebug	-2572
ectu	-2573
ecur	-2574
edge	-2575
edul	-2576
edur	-2577
eech	-2578
elin	-2579
emen	-2580
eniz	-2581
eran	-2582
erat	-2583
eren	-2584
erin	-2585
erit	-2586
eriz	-2587
erla	-2588
erns	-2589
ersi	-2590
erst	-2591
erti	-2592
esen	-2593
esig	-2594
esse	-2595
eter	-2596
etes	-2597
ferr	-2598
fici	-2599
Ca	-2600
Cry	-2601
Fir	-2602
ail	-2603
bil	-2604
dth	-2605
ked	-2606
mes	-2607
mum	-2608
odi	-2609
own	-2610
rec	-2611
reu	-2612
see	-2613
uag	-2614
ugg	-2615
▁Cl	-2616
▁SQ	-2617
▁Sc	-2618
▁ef	-2619
▁tr	-2620
call	-2621
ctly	-2622
etwe	-2623
forc	-2624
gent	-2625
grad	-2626
grap	-2627
guag	-2628
hell	-2629
hing	-2630
icat	-2631
icts	-2632
ilds	-2633
iler	-2634
ilit	-2635
ilur	-2636
imiz	-2637
imul	-2638
imum	-2639
inar	-2640
inci	-2641
iner	-2642
ingf	-2643
ingl	-2644
inin	-2645
inst	-2646
ints	-2647
ised	-2648
isor	-2649
ital	-2650
itan	-2651
itch	-2652
item	-2653
ites	-2654
itiv	-2655
ject	-2656
kens	-2657
king	-2658
labe	-2659
lain	-2660
lanc	-2661
lary	-2662
last	-2663
lear	-2664
leas	-2665
line	-2666
ling	-2667
lith	-2668
llow	-2669
load	-2670
lock	-2671
lose	-2672
loss	-2673
mall	-2674
mand	-2675
mend	-2676
mers	-2677
mmut	-2678
mput	-2679
nces	-2680
nder	-2681
nect	-2682
ning	-2683
niqu	-2684
nsla	-2685
ocur	-2686
ocus	-2687
odes	-2688
ogra	-2689
olym	-2690
omal	-2691
onal	-2692
once	-2693
onit	-2694
onol	-2695
onse	-2696
onti	-2697
orag	-2698
orar	-2699
ga	-2700
gl	-2701
ht	-2702
lg	-2703
Aut	-2704
Obj	-2705
Ver	-2706
Vir	-2707
abl	-2708
abu	-2709
ase	-2710
ava	-2711
dab	-2712
dom	-2713
ena	-2714
era	-2715
eso	-2716
lti	-2717
ods	-2718
oly	-2719
ret	-2720
rev	-2721
sly	-2722
sti	-2723
tim	-2724
uen	-2725
uir	-2726
umb	-2727
ura	-2728
ven	-2729
▁Hy	-2730
▁TC	-2731
▁To	-2732
▁em	-2733
abil	-2734
ackp	-2735
aral	-2736
cale	-2737
ccur	-2738
ckag	-2739
core	-2740
curs	-2741
idel	-2742
iden	-2743
idth	-2744
irst	-2745
ithm	-2746
metr	-2747
orat	-2748
orch	-2749
ords	-2750
ores	-2751
orit	-2752
oriz	-2753
orre	-2754
otic	-2755
perv	-2756
phis	-2757
ping	-2758
pire	-2759
plic	-2760
pret	-2761
prop	-2762
puts	-2763
quan	-2764
quel	-2765
quen	-2766
quer	-2767
queu	-2768
racy	-2769
radi	-2770
rary	-2771
rate	-2772
reas	-2773
reat	-2774
rede	-2775
rein	-2776
rela	-2777
rele	-2778
reli	-2779
reso	-2780
resp	-2781
ress	-2782
rite	-2783
rodu	-2784
rols	-2785
ront	-2786
rors	-2787
rose	-2788
roug	-2789
rout	-2790
runs	-2791
rypt	-2792
semb	-2793
sequ	-2794
seri	-2795
sers	-2796
serv	-2797
sing	-2798
sist	-2799
Au	-2800
Ma	-2801
RA	-2802
fy	-2803
lt	-2804
nc	-2805
Kub	-2806
chs	-2807
cus	-2808
ddi	-2809
eep	-2810
het	-2811
imi	-2812
mpl	-2813
oma	-2814
opu	-2815
pli	-2816
sin	-2817
usu	-2818
val	-2819
xec	-2820
▁Co	-2821
▁DN	-2822
▁Fe	-2823
Back	-2824
YAML	-2825
ards	-2826
atin	-2827
chin	-2828
ecom	-2829
ecut	-2830
ests	-2831
igen	-2832
inuo	-2833
rese	-2834
sses	-2835
ssig	-2836
stan	-2837
ster	-2838
stor	-2839
stri	-2840
tant	-2841
tect	-2842
tern	-2843
tfor	-2844
time	-2845
tinu	-2846
tual	-2847
uces	-2848
uent	-2849
uild	-2850
umer	-2851
unic	-2852
ural	-2853
urel	-2854
urit	-2855
urpo	-2856
urre	-2857
usly	-2858
utab	-2859
utom	-2860
vate	-2861
vent	-2862
verf	-2863
vert	-2864
vity	-2865
wall	-2866
wers	-2867
what	-2868
wser	-2869
xing	-2870
xity	-2871
xpla	-2872
▁Acc	-2873
▁Ban	-2874
▁Bas	-2875
▁Bat	-2876
▁Blo	-2877
▁Cla	-2878
▁Clo	-2879
▁Cry	-2880
▁Des	-2881
▁Dig	-2882
▁Dim	-2883
▁Ful	-2884
▁Gre	-2885
▁Has	-2886
▁Hel	-2887
▁Inf	-2888
▁Inh	-2889
▁Int	-2890
▁Kub	-2891
▁Lar	-2892
▁Lat	-2893
▁Mic	-2894
▁Mod	-2895
▁Mul	-2896
▁Nat	-2897
▁Pub	-2898
▁PyT	-2899
AP	-2900
Bi	-2901
PS	-2902
bu	-2903
mw	-2904
yo	-2905
ys	-2906
Dig	-2907
Fin	-2908
TPS	-2909
cti	-2910
dur	-2911
iab	-2912
ild	-2913
irm	-2914
ivi	-2915
sta	-2916
toc	-2917
tur	-2918
ubl	-2919
wel	-2920
yth	-2921
▁Lo	-2922
▁Sp	-2923
▁hu	-2924
▁kn	-2925
▁ra	-2926
Mach	-2927
ally	-2928
andw	-2929
cies	-2930
derf	-2931
entl	-2932
eous	-2933
eric	-2934
erif	-2935
ffer	-2936
ored	-2937
orks	-2938
pend	-2939
sula	-2940
tend	-2941
toch	-2942
valu	-2943
vior	-2944
▁HTM	-2945
▁HTT	-2946
▁RES	-2947
▁Ran	-2948
▁Reg	-2949
▁Res	-2950
▁Sel	-2951
▁Ten	-2952
▁Tim	-2953
▁Tra	-2954
▁Uns	-2955
▁acc	-2956
▁add	-2957
▁aft	-2958
▁alg	-2959
▁ans	-2960
▁att	-2961
▁ban	-2962
▁bat	-2963
▁bef	-2964
▁bet	-2965
▁bit	-2966
▁blo	-2967
▁bra	-2968
▁bro	-2969
▁cat	-2970
▁che	-2971
▁cla	-2972
▁cod	-2973
▁cry	-2974
▁dat	-2975
▁deb	-2976
▁dec	-2977
▁dee	-2978
▁del	-2979
▁dim	-2980
▁dis	-2981
▁div	-2982
▁ena	-2983
▁enc	-2984
▁eng	-2985
▁fil	-2986
▁fin	-2987
▁fla	-2988
▁fre	-2989
▁fro	-2990
▁ful	-2991
▁gen	-2992
▁gro	-2993
▁han	-2994
▁har	-2995
▁has	-2996
▁hid	-2997
▁hig	-2998
▁hum	-2999
Hy	-3000
ho	-3001
no	-3002
sc	-3003
xt	-3004
AML	-3005
Mon	-3006
bel	-3007
bly	-3008
han	-3009
llo	-3010
onc	-3011
ran	-3012
sag	-3013
Vers	-3014
Virt	-3015
ange	-3016
eigh	-3017
ency	-3018
itse	-3019
lgor	-3020
llab	-3021
mbed	-3022
oney	-3023
tain	-3024
▁app	-3025
▁beg	-3026
▁beh	-3027
▁epo	-3028
▁imm	-3029
▁ind	-3030
▁inf	-3031
▁inh	-3032
▁inp	-3033
▁ins	-3034
▁ker	-3035
▁lan	-3036
▁lar	-3037
▁lat	-3038
▁lay	-3039
▁led	-3040
▁len	-3041
▁lev	-3042
▁lib	-3043
▁lig	-3044
▁lin	-3045
▁lon	-3046
▁mat	-3047
▁max	-3048
▁mem	-3049
▁mes	-3050
▁met	-3051
▁mic	-3052
▁min	-3053
▁mul	-3054
▁nam	-3055
▁nat	-3056
▁net	-3057
▁nex	-3058
▁non	-3059
▁obj	-3060
▁ord	-3061
▁org	-3062
▁ori	-3063
▁oth	-3064
▁pag	-3065
▁pas	-3066
▁pen	-3067
▁phy	-3068
▁pip	-3069
▁pla	-3070
▁pos	-3071
▁pri	-3072
▁pub	-3073
▁rea	-3074
▁red	-3075
▁reg	-3076
▁rel	-3077
▁rep	-3078
▁req	-3079
▁reu	-3080
▁rew	-3081
▁rob	-3082
▁rul	-3083
▁saf	-3084
▁sam	-3085
▁sch	-3086
▁sec	-3087
▁sel	-3088
▁sep	-3089
▁sig	-3090
▁siz	-3091
▁sof	-3092
▁sol	-3093
▁spa	-3094
▁spo	-3095
▁sta	-3096
▁ste	-3097
▁sym	-3098
▁tag	-3099
▁tak	-3100
▁tas	-3101
▁tex	-3102
▁tok	-3103
▁tol	-3104
▁una	-3105
▁und	-3106
▁uni	-3107
▁uns	-3108
▁unu	-3109
▁val	-3110
▁var	-3111
▁vie	-3112
▁vir	-3113
▁voc	-3114
▁wel	-3115
▁whi	-3116
▁win	-3117
▁wit	-3118
▁wor	-3119
Memor	-3120
aScri	-3121
abula	-3122
achin	-3123
acken	-3124
ainer	-3125
alled	-3126
aller	-3127
anage	-3128
aning	-3129
anize	-3130
arate	-3131
arned	-3132
astic	-3133
atase	-3134
atter	-3135
ature	-3136
avaSc	-3137
botic	-3138
calab	-3139
ccess	-3140
cesse	-3141
chain	-3142
chine	-3143
ckage	-3144
ctual	-3145
cture	-3146
cured	-3147
dates	-3148
defin	-3149
derst	-3150
dicts	-3151
duces	-3152
dware	-3153
ecall	-3154
ecomm	-3155
ector	-3156
eight	-3157
ement	-3158
empor	-3159
enden	-3160
ensor	-3161
ented	-3162
entic	-3163
entif	-3164
entit	-3165
erate	-3166
erent	-3167
erfor	-3168
erify	-3169
ernet	-3170
error	-3171
escri	-3172
esent	-3173
esign	-3174
etect	-3175
eters	-3176
etwor	-3177
eural	-3178
fines	-3179
forms	-3180
ganiz	-3181
gents	-3182
gging	-3183
gradi	-3184
gramm	-3185
grams	-3186
graph	-3187
guage	-3188
guous	-3189
horiz	-3190
iable	-3191
idely	-3192
iffer	-3193
igent	-3194
ightw	-3195
igits	-3196
imize	-3197
impor	-3198
imult	-3199
inary	-3200
inear	-3201
ineer	-3202
iners	-3203
ining	-3204
ional	-3205
iples	-3206
irect	-3207
iring	-3208
isors	-3209
istri	-3210
isual	-3211
itect	-3212
ithin	-3213
ithms	-3214
ition	-3215
ivers	-3216
keniz	-3217
lable	-3218
lassi	-3219
loser	-3220
lower	-3221
lymor	-3222
mages	-3223
mbedd	-3224
mines	-3225
mized	-3226
ncryp	-3227
nguag	-3228
nsfer	-3229
nsfor	-3230
nstru	-3231
ntion	-3232
ochas	-3233
olith	-3234
ollow	-3235
omain	-3236
omput	-3237
oncur	-3238
opula	-3239
orage	-3240
orate	-3241
oring	-3242
orith	-3243
other	-3244
ource	-3245
peech	-3246
perat	-3247
perti	-3248
pervi	-3249
phism	-3250
pired	-3251
plies	-3252
pment	-3253
pochs	-3254
porar	-3255
pping	-3256
psula	-3257
ption	-3258
puter	-3259
quely	-3260
quent	-3261
ralle	-3262
reats	-3263
rency	-3264
reter	-3265
ribut	-3266
roces	-3267
rogra	-3268
roser	-3269
rtion	-3270
sages	-3271
secur	-3272
sical	-3273
sitor	-3274
stand	-3275
stems	-3276
struc	-3277
sures	-3278
tform	-3279
tical	-3280
tiona	-3281
tions	-3282
tiple	-3283
tives	-3284
tocur	-3285
togra	-3286
tware	-3287
ualiz	-3288
ugges	-3289
uilds	-3290
ultan	-3291
ultit	-3292
umans	-3293
uning	-3294
urces	-3295
urely	-3296
uring	-3297
urity	-3298
uthen	-3299
uthor	-3300
uting	-3301
verla	-3302
verts	-3303
witch	-3304
yment	-3305
ymmet	-3306
▁Accu	-3307
▁Anom	-3308
▁Band	-3309
▁Cach	-3310
▁Cryp	-3311
▁Dock	-3312
▁Enca	-3313
▁GitH	-3314
▁Linu	-3315
▁Natu	-3316
▁Pack	-3317
▁Pyth	-3318
▁Rand	-3319
▁Rein	-3320
▁Resp	-3321
▁Thre	-3322
▁Vers	-3323
▁accu	-3324
▁acro	-3325
▁acti	-3326
▁anom	-3327
▁answ	-3328
▁appe	-3329
▁arch	-3330
▁arra	-3331
▁arti	-3332
▁asse	-3333
▁auth	-3334
▁bala	-3335
▁band	-3336
▁beha	-3337
▁cach	-3338
▁call	-3339
▁cann	-3340
▁chan	-3341
▁clou	-3342
▁comb	-3343
▁comp	-3344
▁conc	-3345
▁conn	-3346
▁cons	-3347
▁conv	-3348
▁cryp	-3349
▁dela	-3350
▁deta	-3351
▁divi	-3352
▁enab	-3353
▁enca	-3354
▁exch	-3355
▁faul	-3356
▁fiel	-3357
▁fire	-3358
▁firm	-3359
▁focu	-3360
▁forw	-3361
▁grou	-3362
▁grow	-3363
▁hand	-3364
▁heal	-3365
▁iden	-3366
▁inde	-3367
▁inte	-3368
▁item	-3369
▁itse	-3370
▁kern	-3371
▁know	-3372
▁labe	-3373
▁lear	-3374
▁ledg	-3375
▁leng	-3376
▁ligh	-3377
▁link	-3378
▁main	-3379
▁math	-3380
▁mech	-3381
▁meth	-3382
▁modi	-3383
▁natu	-3384
▁netw	-3385
▁numb	-3386
▁opti	-3387
▁para	-3388
▁peri	-3389
▁poly	-3390
▁posi	-3391
▁prec	-3392
▁pred	-3393
▁prep	-3394
▁pret	-3395
▁prev	-3396
▁prin	-3397
▁proc	-3398
▁prog	-3399
▁prop	-3400
▁prot	-3401
▁prov	-3402
▁quan	-3403
▁quer	-3404
▁queu	-3405
▁reco	-3406
▁rein	-3407
▁reli	-3408
▁repo	-3409
▁requ	-3410
▁rese	-3411
▁reso	-3412
▁robo	-3413
▁rout	-3414
▁scal	-3415
▁seri	-3416
▁serv	-3417
▁sign	-3418
▁simi	-3419
▁sing	-3420
▁soft	-3421
▁sour	-3422
▁stru	-3423
▁syst	-3424
▁task	-3425
▁tech	-3426
▁thei	-3427
▁thre	-3428
▁thro	-3429
▁trac	-3430
▁traf	-3431
▁tran	-3432
▁unla	-3433
▁unus	-3434
▁usef	-3435
▁valu	-3436
▁vers	-3437
▁vide	-3438
▁virt	-3439
▁webs	-3440
▁weig	-3441
▁wher	-3442
▁wind	-3443
Object	-3444
achine	-3445
ackage	-3446
ackend	-3447
ackets	-3448
ackpro	-3449
action	-3450
adable	-3451
alties	-3452
amples	-3453
anages	-3454
andwid	-3455
aneous	-3456
arance	-3457
arning	-3458
asking	-3459
asures	-3460
ataset	-3461
atches	-3462
ategor	-3463
ations	-3464
atures	-3465
bility	-3466
bjects	-3467
cation	-3468
cesses	-3469
chanis	-3470
chedul	-3471
ciples	-3472
ctiona	-3473
ctures	-3474
curely	-3475
dation	-3476
derfit	-3477
dition	-3478
eature	-3479
ecific	-3480
ection	-3481
ectors	-3482
edures	-3483
elines	-3484
ematic	-3485
embedd	-3486
emoriz	-3487
endenc	-3488
endent	-3489
ension	-3490
ensorF	-3491
ention	-3492
erance	-3493
erates	-3494
erence	-3495
erform	-3496
erized	-3497
errors	-3498
escent	-3499
escrib	-3500
esting	-3501
etween	-3502
ficial	-3503
forcem	-3504
forman	-3505
ganize	-3506
gation	-3507
gether	-3508
hether	-3509
iables	-3510
iction	-3511
igence	-3512
ilures	-3513
images	-3514
inding	-3515
instru	-3516
inters	-3517
ission	-3518
istrib	-3519
itance	-3520
itting	-3521
lances	-3522
lasses	-3523
lation	-3524
leases	-3525
lement	-3526
mation	-3527
meters	-3528
metric	-3529
nction	-3530
nected	-3531
nguage	-3532
niques	-3533
nition	-3534
nsform	-3535
nsuper	-3536
ogging	-3537
ollows	-3538
omatic	-3539
onitor	-3540
online	-3541
ontain	-3542
opment	-3543
opular	-3544
orking	-3545
orrect	-3546
ortion	-3547
pdates	-3548
pervis	-3549
preter	-3550
puters	-3551
puting	-3552
quence	-3553
rained	-3554
ration	-3555
reases	-3556
reates	-3557
resent	-3558
respon	-3559
rivate	-3560
rocess	-3561
rogram	-3562
rowser	-3563
rtific	-3564
server	-3565
sional	-3566
ssigns	-3567
stance	-3568
tation	-3569
ticity	-3570
tivity	-3571
tochas	-3572
uantiz	-3573
uation	-3574
uction	-3575
uggest	-3576
ugging	-3577
upervi	-3578
urpose	-3579
vation	-3580
verfit	-3581
weight	-3582
zation	-3583
▁Activ	-3584
▁Clust	-3585
▁Datab	-3586
▁Debug	-3587
▁Digit	-3588
▁Dimen	-3589
▁Expla	-3590
▁Hyper	-3591
▁Infer	-3592
▁Inher	-3593
▁Inter	-3594
▁Laten	-3595
▁Memor	-3596
▁Micro	-3597
▁Monol	-3598
▁Polym	-3599
▁PyTor	-3600
▁Recur	-3601
▁Super	-3602
▁Thing	-3603
▁activ	-3604
▁algor	-3605
▁begin	-3606
▁clust	-3607
▁conta	-3608
▁conte	-3609
▁conti	-3610
▁datab	-3611
▁debug	-3612
▁deplo	-3613
▁deter	-3614
▁devel	-3615
▁devic	-3616
▁digit	-3617
▁dimen	-3618
▁event	-3619
▁execu	-3620
▁firew	-3621
▁front	-3622
▁hyper	-3623
▁immut	-3624
▁impor	-3625
▁indep	-3626
▁infer	-3627
▁infor	-3628
▁inher	-3629
▁inspi	-3630
▁inste	-3631
▁intel	-3632
▁intro	-3633
▁inval	-3634
▁invol	-3635
▁label	-3636
▁laten	-3637
▁libra	-3638
▁light	-3639
▁maxim	-3640
▁micro	-3641
▁modif	-3642
▁monit	-3643
▁monol	-3644
▁numer	-3645
▁paral	-3646
▁point	-3647
▁polym	-3648
▁prede	-3649
▁proto	-3650
▁recog	-3651
▁recom	-3652
▁recur	-3653
▁relev	-3654
▁rewar	-3655
▁secur	-3656
▁separ	-3657
▁super	-3658
▁track	-3659
▁unaut	-3660
▁uniqu	-3661
▁verif	-3662
▁weigh	-3663
Network	-3664
Virtual	-3665
agation	-3666
aintain	-3667
arallel	-3668
ardware	-3669
chitect	-3670
ckchain	-3671
creases	-3672
dresses	-3673
duction	-3674
eatures	-3675
elivers	-3676
enerate	-3677
equence	-3678
erating	-3679
escribe	-3680
essages	-3681
etworks	-3682
ficient	-3683
ganizes	-3684
gorithm	-3685
gration	-3686
horized	-3687
hysical	-3688
ictions	-3689
inimize	-3690
irmware	-3691
labeled	-3692
lection	-3693
lerance	-3694
lgorith	-3695
obotics	-3696
ocabula	-3697
oftware	-3698
oncurre	-3699
orphism	-3700
otation	-3701
plexity	-3702
process	-3703
radient	-3704
raining	-3705
reating	-3706
reation	-3707
requent	-3708
ression	-3709
ributed	-3710
ruction	-3711
ryption	-3712
ssembly	-3713
stering	-3714
tention	-3715
tinuous	-3716
ubernet	-3717
ulation	-3718
ultiple	-3719
unction	-3720
utation	-3721
ypervis	-3722
▁Accura	-3723
▁Author	-3724
▁Embedd	-3725
▁Encaps	-3726
▁Instru	-3727
▁JavaSc	-3728
▁Recomm	-3729
▁Regres	-3730
▁Respon	-3731
▁accura	-3732
▁action	-3733
▁addres	-3734
▁authen	-3735
▁author	-3736
▁balanc	-3737
▁behavi	-3738
▁classi	-3739
▁collab	-3740
▁common	-3741
▁compil	-3742
▁comple	-3743
▁concur	-3744
▁contex	-3745
▁contin	-3746
▁contro	-3747
▁datase	-3748
▁decryp	-3749
▁deploy	-3750
▁design	-3751
▁detect	-3752
▁determ	-3753
▁differ	-3754
▁direct	-3755
▁embedd	-3756
▁encaps	-3757
▁encryp	-3758
▁exchan	-3759
▁execut	-3760
▁forwar	-3761
▁import	-3762
▁intell	-3763
▁interc	-3764
▁interf	-3765
▁intern	-3766
▁interp	-3767
▁involv	-3768
▁machin	-3769
▁multit	-3770
▁orient	-3771
▁overla	-3772
▁patter	-3773
▁period	-3774
▁predef	-3775
▁prepar	-3776
▁proble	-3777
▁proced	-3778
▁proces	-3779
▁progra	-3780
▁proper	-3781
▁propor	-3782
▁recomm	-3783
▁regres	-3784
▁repres	-3785
▁reques	-3786
▁requir	-3787
▁resear	-3788
▁resour	-3789
▁respon	-3790
▁sequen	-3791
▁simila	-3792
▁simult	-3793
▁symmet	-3794
▁transa	-3795
▁transm	-3796
▁unstru	-3797
▁websit	-3798
aluation	-3799
aneously	-3800
ariables	-3801
bability	-3802
chanisms	-3803
dictions	-3804
ditional	-3805
elligent	-3806
ematical	-3807
emorizes	-3808
enalties	-3809
endation	-3810
enerates	-3811
fficient	-3812
fication	-3813
formance	-3814
gradient	-3815
ications	-3816
ineering	-3817
inforcem	-3818
ipelines	-3819
lability	-3820
lassific	-3821
lational	-3822
lowering	-3823
ochastic	-3824
omatical	-3825
pagation	-3826
perating	-3827
platform	-3828
porarily	-3829
ptimized	-3830
putation	-3831
recision	-3832
reliable	-3833
ryptocur	-3834
ryptogra	-3835
services	-3836
sitories	-3837
tication	-3838
tization	-3839
ultitask	-3840
unctions	-3841
ustering	-3842
uthentic	-3843
witching	-3844
ymmetric	-3845
▁Blockch	-3846
▁Contain	-3847
▁Inherit	-3848
▁Monitor	-3849
▁Program	-3850
▁Reinfor	-3851
▁TensorF	-3852
▁appeara	-3853
▁artific	-3854
▁backpro	-3855
▁blockch	-3856
▁categor	-3857
▁contigu	-3858
▁continu	-3859
▁describ	-3860
▁develop	-3861
▁element	-3862
▁identif	-3863
▁identit	-3864
▁inherit	-3865
▁integra	-3866
▁interac	-3867
▁languag	-3868
▁meaning	-3869
▁modific	-3870
▁monitor	-3871
▁nonline	-3872
▁paramet	-3873
▁positiv	-3874
▁predict	-3875
▁quantiz	-3876
▁recogni	-3877
▁reinfor	-3878
▁tokeniz	-3879
▁transla	-3880
ackpropag	-3881
adability	-3882
alization	-3883
cheduling	-3884
echniques	-3885
elligence	-3886
endencies	-3887
enerating	-3888
erization	-3889
etworking	-3890
formation	-3891
gineering	-3892
henticity	-3893
ignatures	-3894
ncryption	-3895
nsformers	-3896
ocabulary	-3897
ontinuous	-3898
orization	-3899
plication	-3900
requently	-3901
rinciples	-3902
rtificial	-3903
sionality	-3904
structure	-3905
tochastic	-3906
ubernetes	-3907
unctional	-3908
unication	-3909
utability	-3910
▁Algorith	-3911
▁Microser	-3912
▁collabor	-3913
▁communic	-3914
▁concurre	-3915
▁independ	-3916
▁intercon	-3917
▁microser	-3918
▁overlapp	-3919
▁pretrain	-3920
▁programm	-3921
▁translat	-3922
▁transmis	-3923
▁understo	-3924
aintaining	-3925
authorized	-3926
chitecture	-3927
derfitting	-3928
ialization	-3929
ightweight	-3930
kenization	-3931
oncurrency	-3932
positories	-3933
processing	-3934
ryptocurre	-3935
structured	-3936
structures	-3937
ualization	-3938
verfitting	-3939
▁Dimension	-3940
▁Encapsula	-3941
▁Polymorph	-3942
▁Recommend	-3943
▁classific	-3944
▁dimension	-3945
▁distribut	-3946
▁encapsula	-3947
▁interconn	-3948
▁multitask	-3949
▁polymorph	-3950
▁recommend	-3951
▁transferr	-3952
▁transform	-3953
athematical	-3954
hentication	-3955
instruction	-3956
mmutability	-3957
okenization	-3958
ransformers	-3959
ryptography	-3960
uantization	-3961
ultaneously	-3962
ultitasking	-3963
▁backpropag	-3964
▁interactiv	-3965
Quantization	-3966
▁automatical	-3967
▁instruction	-3968
irtualization	-3969
lassification	-3970
ryptocurrency	-3971
ackpropagation	-3972
▁	-3973
e	-3974
n	-3975
s	-3976
t	-3977
i	-3978
o	-3979
a	-3980
r	-3981
c	-3982
p	-3983
l	-3984
u	-3985
d	-3986
m	-3987
:	-3988
g	-3989
h	-3990
f	-3991
R	-3992
I	-3993
.	-3994
y	-3995
x	-3996
w	-3997
E	-3998
b	-3999
v	-4000
k	-4001
A	-4002
W	-4003
P	-4004
T	-4005
S	-4006
z	-4007
C	-4008
D	-4009
L	-4010
M	-4011
H	-4012
q	-4013
F	-4014
U	-4015
B	-4016
G	-4017
j	-4018
O	-4019
N	-4020
J	-4021
Q	-4022
V	-4023
1	-4024
K	-4025
Y	-4026
